{
  "version": "1.0",
  "truncation": null,
  "padding": null,
  "added_tokens": [
    {
      "id": 0,
      "content": "[UNK]",
      "single_word": false,
      "lstrip": false,
      "rstrip": false,
      "normalized": false,
      "special": true
    },
    {
      "id": 1,
      "content": "[EOS]",
      "single_word": false,
      "lstrip": false,
      "rstrip": false,
      "normalized": false,
      "special": true
    },
    {
      "id": 2,
      "content": "[BOS]",
      "single_word": false,
      "lstrip": false,
      "rstrip": false,
      "normalized": false,
      "special": true
    },
    {
      "id": 3,
      "content": "[PAD]",
      "single_word": false,
      "lstrip": false,
      "rstrip": false,
      "normalized": false,
      "special": true
    }
  ],
  "normalizer": {
    "type": "Sequence",
    "normalizers": [
      {
        "type": "NFD"
      },
      {
        "type": "Lowercase"
      },
      {
        "type": "StripAccents"
      }
    ]
  },
  "pre_tokenizer": {
    "type": "ByteLevel",
    "add_prefix_space": true,
    "trim_offsets": true,
    "use_regex": true
  },
  "post_processor": null,
  "decoder": null,
  "model": {
    "type": "BPE",
    "dropout": null,
    "unk_token": "[UNK]",
    "continuing_subword_prefix": null,
    "end_of_word_suffix": null,
    "fuse_unk": false,
    "byte_fallback": false,
    "ignore_merges": false,
    "vocab": {
      "[UNK]": 0,
      "[EOS]": 1,
      "[BOS]": 2,
      "[PAD]": 3,
      "!": 4,
      "$": 5,
      "&": 6,
      "'": 7,
      ",": 8,
      "-": 9,
      ".": 10,
      "3": 11,
      ":": 12,
      ";": 13,
      "?": 14,
      "a": 15,
      "b": 16,
      "c": 17,
      "d": 18,
      "e": 19,
      "f": 20,
      "g": 21,
      "h": 22,
      "i": 23,
      "j": 24,
      "k": 25,
      "l": 26,
      "m": 27,
      "n": 28,
      "o": 29,
      "p": 30,
      "q": 31,
      "r": 32,
      "s": 33,
      "t": 34,
      "u": 35,
      "v": 36,
      "w": 37,
      "x": 38,
      "y": 39,
      "z": 40,
      "Ċ": 41,
      "Ġ": 42,
      "Ġt": 43,
      "he": 44,
      "Ġa": 45,
      "Ġs": 46,
      "Ġw": 47,
      "Ġi": 48,
      "ou": 49,
      "Ġm": 50,
      "Ġb": 51,
      "ha": 52,
      "re": 53,
      "Ġthe": 54,
      "nd": 55,
      "in": 56,
      "or": 57,
      "Ġf": 58,
      "Ġc": 59,
      "ĠĊ": 60,
      "Ġo": 61,
      "er": 62,
      "Ġl": 63,
      "ll": 64,
      "Ġd": 65,
      "Ġn": 66,
      "hi": 67,
      "Ġy": 68,
      "en": 69,
      "Ġp": 70,
      "Ġto": 71,
      "es": 72,
      "Ġand": 73,
      "ar": 74,
      "Ġyou": 75,
      "Ġhe": 76,
      "on": 77,
      "Ġg": 78,
      "th": 79,
      "ing": 80,
      "st": 81,
      "Ġth": 82,
      "Ġof": 83,
      "Ġno": 84,
      "hat": 85,
      "an": 86,
      "om": 87,
      "ve": 88,
      "Ġwi": 89,
      "Ġha": 90,
      "Ġbe": 91,
      "se": 92,
      "Ġmy": 93,
      "Ġhi": 94,
      "ow": 95,
      "Ġin": 96,
      "ce": 97,
      "at": 98,
      "le": 99,
      "Ġthat": 100,
      "ri": 101,
      "ed": 102,
      "ay": 103,
      "et": 104,
      "Ġfor": 105,
      "ut": 106,
      "Ġk": 107,
      "ld": 108,
      "Ġis": 109,
      "Ġwe": 110,
      "ir": 111,
      "us": 112,
      "Ġme": 113,
      "Ġe": 114,
      "Ġh": 115,
      "ke": 116,
      "Ġnot": 117,
      "'s": 118,
      "Ġwith": 119,
      "ch": 120,
      "gh": 121,
      "oo": 122,
      "ent": 123,
      "it": 124,
      "Ġit": 125,
      "Ġyour": 126,
      "Ġthou": 127,
      "our": 128,
      "her": 129,
      "ea": 130,
      "ro": 131,
      "Ġthi": 132,
      "Ġu": 133,
      "Ġst": 134,
      "ome": 135,
      "Ġas": 136,
      "is": 137,
      "Ġhis": 138,
      "Ġbut": 139,
      "Ġthis": 140,
      "Ġso": 141,
      "Ġre": 142,
      "'d": 143,
      "Ġli": 144,
      "ad": 145,
      "Ġhave": 146,
      "ord": 147,
      "Ġv": 148,
      "io": 149,
      "ly": 150,
      "ra": 151,
      "ght": 152,
      "Ġon": 153,
      "Ġhim": 154,
      "al": 155,
      "Ġdo": 156,
      "as": 157,
      "ck": 158,
      "est": 159,
      "id": 160,
      "Ġwhat": 161,
      "ur": 162,
      "Ġmo": 163,
      "Ġan": 164,
      "Ġsha": 165,
      "ru": 166,
      "Ġse": 167,
      "Ġthy": 168,
      "ould": 169,
      "Ġwill": 170,
      "ood": 171,
      "am": 172,
      "ain": 173,
      "li": 174,
      "Ġking": 175,
      "ess": 176,
      "ge": 177,
      "ard": 178,
      "Ġwh": 179,
      "Ġall": 180,
      "and": 181,
      "Ġwhe": 182,
      "Ġgo": 183,
      "Ġher": 184,
      "Ġsu": 185,
      "ther": 186,
      "Ġby": 187,
      "ver": 188,
      "Ġ'": 189,
      "Ġlo": 190,
      "Ġshall": 191,
      "Ġfa": 192,
      "Ġlord": 193,
      "ion": 194,
      "Ġma": 195,
      "qu": 196,
      "Ġour": 197,
      "ear": 198,
      "Ġsp": 199,
      "Ġwhi": 200,
      "ell": 201,
      "Ġif": 202,
      "Ġare": 203,
      "han": 204,
      "Ġthee": 205,
      "Ġsh": 206,
      "Ġri": 207,
      "Ġne": 208,
      "ry": 209,
      "Ġca": 210,
      "Ġfr": 211,
      "Ġbo": 212,
      "Ġr": 213,
      "Ġkn": 214,
      "Ġgood": 215,
      "Ġcom": 216,
      "Ġj": 217,
      "Ġnow": 218,
      "Ġup": 219,
      "ill": 220,
      "ter": 221,
      "fe": 222,
      "Ġun": 223,
      "Ġshe": 224,
      "ct": 225,
      "ous": 226,
      "Ġthere": 227,
      "ius": 228,
      "Ġdu": 229,
      "Ġat": 230,
      "Ġsir": 231,
      "Ġmar": 232,
      "Ġmu": 233,
      "Ġpr": 234,
      "Ġor": 235,
      "la": 236,
      "Ġde": 237,
      "ant": 238,
      "ul": 239,
      "Ġcome": 240,
      "Ġqu": 241,
      "Ġcon": 242,
      "Ġfrom": 243,
      "Ġhere": 244,
      "sel": 245,
      "art": 246,
      "me": 247,
      "Ġthan": 248,
      "Ġthen": 249,
      "har": 250,
      "ine": 251,
      "Ġman": 252,
      "one": 253,
      "Ġlet": 254,
      "Ġmore": 255,
      "Ġwhich": 256,
      "'ll": 257,
      "Ġam": 258,
      "ight": 259,
      "il": 260,
      "Ġwas": 261,
      "own": 262,
      "Ġwould": 263,
      "ore": 264,
      "Ġpro": 265,
      "ble": 266,
      "Ġthey": 267,
      "Ġcan": 268,
      "Ġhow": 269,
      "out": 270,
      "Ġdea": 271,
      "Ġsay": 272,
      "ven": 273,
      "Ġta": 274,
      "Ġwell": 275,
      "res": 276,
      "Ġthem": 277,
      "Ġsee": 278,
      "Ġsw": 279,
      "ward": 280,
      "ic": 281,
      "ive": 282,
      "Ġbl": 283,
      "Ġtheir": 284,
      "ol": 285,
      "ers": 286,
      "Ġlove": 287,
      "Ġpo": 288,
      "Ġduke": 289,
      "ep": 290,
      "ort": 291,
      "Ġwho": 292,
      "ure": 293,
      "Ġar": 294,
      "Ġwhen": 295,
      "self": 296,
      "ather": 297,
      "ate": 298,
      "Ġknow": 299,
      "Ġmay": 300,
      "Ġhath": 301,
      "een": 302,
      "pp": 303,
      "Ġus": 304,
      "Ġwar": 305,
      "--": 306,
      "un": 307,
      "Ġwhere": 308,
      "um": 309,
      "Ġgre": 310,
      "Ġhen": 311,
      "end": 312,
      "Ġho": 313,
      "Ġone": 314,
      "Ġwor": 315,
      "ist": 316,
      "ond": 317,
      "Ġwere": 318,
      "Ġen": 319,
      "ast": 320,
      "Ġsa": 321,
      "char": 322,
      "ot": 323,
      "ong": 324,
      "ink": 325,
      "Ġmake": 326,
      "ie": 327,
      "Ġupon": 328,
      "fore": 329,
      "Ġmad": 330,
      "ame": 331,
      "Ġag": 332,
      "Ġshould": 333,
      "Ġlike": 334,
      "Ġdid": 335,
      "chard": 336,
      "Ġmust": 337,
      "Ġrichard": 338,
      "Ġfri": 339,
      "Ġyet": 340,
      "ook": 341,
      "Ġtru": 342,
      "Ġhad": 343,
      "Ġqueen": 344,
      "pe": 345,
      "ig": 346,
      "Ġrome": 347,
      "Ġfir": 348,
      "Ġnor": 349,
      "ves": 350,
      "Ġba": 351,
      "Ġgra": 352,
      "ng": 353,
      "Ġmen": 354,
      "Ġgl": 355,
      "cent": 356,
      "Ġsome": 357,
      "tis": 358,
      "Ġfirst": 359,
      "ind": 360,
      "ick": 361,
      "Ġed": 362,
      "ound": 363,
      "Ġwhy": 364,
      "row": 365,
      "ue": 366,
      "Ġtoo": 367,
      "Ġfather": 368,
      "ady": 369,
      "pt": 370,
      "Ġti": 371,
      "Ġgod": 372,
      "ab": 373,
      "Ġedward": 374,
      "Ġagain": 375,
      "el": 376,
      "eak": 377,
      "centio": 378,
      "Ġspeak": 379,
      "Ġju": 380,
      "Ġle": 381,
      "Ġdeath": 382,
      "Ġbro": 383,
      "Ġdis": 384,
      "Ġout": 385,
      "ren": 386,
      "ful": 387,
      "ince": 388,
      "Ġhast": 389,
      "ff": 390,
      "ice": 391,
      "Ġgent": 392,
      "oun": 393,
      "em": 394,
      "Ġbr": 395,
      "ity": 396,
      "lo": 397,
      "sed": 398,
      "Ġgive": 399,
      "Ġhenry": 400,
      "ork": 401,
      "Ġtake": 402,
      "Ġab": 403,
      "Ġlook": 404,
      "Ġyork": 405,
      "ence": 406,
      "Ġthese": 407,
      "are": 408,
      "Ġex": 409,
      "Ġal": 410,
      "Ġgentle": 411,
      "man": 412,
      "ester": 413,
      "Ġromeo": 414,
      "Ġmine": 415,
      "Ġheart": 416,
      "Ġsuch": 417,
      "Ġser": 418,
      "Ġtell": 419,
      "ouc": 420,
      "Ġhand": 421,
      "Ġson": 422,
      "ish": 423,
      "ss": 424,
      "Ġlea": 425,
      "Ġhon": 426,
      "Ġhea": 427,
      "ings": 428,
      "Ġcor": 429,
      "Ġhear": 430,
      "ance": 431,
      "de": 432,
      "Ġglouc": 433,
      "ci": 434,
      "Ġro": 435,
      "Ġgloucester": 436,
      "Ġoff": 437,
      "Ġtime": 438,
      "Ġbrother": 439,
      "Ġla": 440,
      "Ġpl": 441,
      "Ġear": 442,
      "Ġthink": 443,
      "Ġlu": 444,
      "Ġlady": 445,
      "'t": 446,
      "wn": 447,
      "to": 448,
      "ign": 449,
      "Ġpet": 450,
      "ont": 451,
      "Ġaw": 452,
      "Ġpa": 453,
      "ber": 454,
      "ness": 455,
      "Ġcla": 456,
      "Ġmost": 457,
      "Ġblood": 458,
      "ire": 459,
      "Ġbre": 460,
      "ery": 461,
      "Ġdes": 462,
      "Ġever": 463,
      "orn": 464,
      "ies": 465,
      "Ġday": 466,
      "Ġper": 467,
      "ran": 468,
      "Ġpri": 469,
      "Ġlife": 470,
      "ment": 471,
      "Ġii": 472,
      "Ġey": 473,
      "Ġword": 474,
      "Ġfriend": 475,
      "land": 476,
      "Ġvin": 477,
      "wick": 478,
      "Ġvincentio": 479,
      "per": 480,
      "oul": 481,
      "Ġart": 482,
      "Ġbu": 483,
      "Ġwarwick": 484,
      "Ġtw": 485,
      "ught": 486,
      "Ġfl": 487,
      "chi": 488,
      "iz": 489,
      "Ġfear": 490,
      "ling": 491,
      "ving": 492,
      "Ġmade": 493,
      "ose": 494,
      "Ġpray": 495,
      "ft": 496,
      "ian": 497,
      "Ġad": 498,
      "Ġjo": 499,
      "Ġcall": 500,
      "Ġbet": 501,
      "Ġmuch": 502,
      "Ġmer": 503,
      "urn": 504,
      "Ġhonour": 505,
      "eet": 506,
      "Ġnever": 507,
      "ty": 508,
      "Ġsec": 509,
      "Ġgreat": 510,
      "iol": 511,
      "age": 512,
      "use": 513,
      "Ġstand": 514,
      "op": 515,
      "Ġra": 516,
      "inius": 517,
      "lt": 518,
      "Ġsweet": 519,
      "Ġdoth": 520,
      "Ġheaven": 521,
      "ag": 522,
      "ak": 523,
      "mp": 524,
      "Ġcoun": 525,
      "ough": 526,
      "Ġfo": 527,
      "Ġfair": 528,
      "Ġtrue": 529,
      "not": 530,
      "ens": 531,
      "ved": 532,
      "Ġpre": 533,
      "Ġple": 534,
      "Ġnew": 535,
      "ts": 536,
      "Ġbefore": 537,
      "che": 538,
      "Ġpart": 539,
      "thing": 540,
      "Ġpetru": 541,
      "ina": 542,
      "Ġboth": 543,
      "Ġcannot": 544,
      "chio": 545,
      "Ġpetruchio": 546,
      "tle": 547,
      "orrow": 548,
      "urse": 549,
      "Ġany": 550,
      "Ġsc": 551,
      "ation": 552,
      "Ġprince": 553,
      "cc": 554,
      "Ġthus": 555,
      "Ġbeing": 556,
      "rown": 557,
      "Ġay": 558,
      "Ġchi": 559,
      "ster": 560,
      "Ġname": 561,
      "Ġaway": 562,
      "Ġda": 563,
      "Ġnoble": 564,
      "ham": 565,
      "anus": 566,
      "Ġhar": 567,
      "iolanus": 568,
      "Ġco": 569,
      "Ġbeen": 570,
      "ef": 571,
      "Ġcoriolanus": 572,
      "Ġbear": 573,
      "Ġjuli": 574,
      "ms": 575,
      "ree": 576,
      "enius": 577,
      "Ġmenenius": 578,
      "Ġvery": 579,
      "ress": 580,
      ",--": 581,
      "Ġcomm": 582,
      "Ġjuliet": 583,
      "all": 584,
      "red": 585,
      "Ġown": 586,
      "Ġdone": 587,
      "ears": 588,
      "Ġsecond": 589,
      "Ġmean": 590,
      "Ġvi": 591,
      "rence": 592,
      "ps": 593,
      "Ġange": 594,
      "ise": 595,
      "Ġway": 596,
      "Ġhead": 597,
      "ouse": 598,
      "Ġother": 599,
      "Ġmyself": 600,
      "mio": 601,
      "Ġapp": 602,
      "Ġdown": 603,
      "Ġcont": 604,
      "ee": 605,
      "ger": 606,
      "Ġnight": 607,
      "Ġaf": 608,
      "Ġrep": 609,
      "Ġsoul": 610,
      "Ġtherefore": 611,
      "Ġleave": 612,
      "eed": 613,
      "ost": 614,
      "ass": 615,
      "Ġworld": 616,
      "Ġke": 617,
      "Ġagainst": 618,
      "Ġbeg": 619,
      "ower": 620,
      "Ġstay": 621,
      "Ġdead": 622,
      "ughter": 623,
      "less": 624,
      "Ġisab": 625,
      "Ġcons": 626,
      "Ġpoor": 627,
      "Ġthough": 628,
      "Ġpres": 629,
      "Ġgrace": 630,
      "Ġangelo": 631,
      "roke": 632,
      "Ġserv": 633,
      "Ġel": 634,
      "Ġcap": 635,
      "rew": 636,
      "Ġold": 637,
      "Ġlong": 638,
      "Ġmerc": 639,
      "Ġru": 640,
      "cking": 641,
      "ca": 642,
      "Ġnay": 643,
      "Ġkeep": 644,
      "Ġmight": 645,
      "Ġcl": 646,
      "Ġwife": 647,
      "ction": 648,
      "Ġeyes": 649,
      "rong": 650,
      "Ġtill": 651,
      "Ġlive": 652,
      "Ġmother": 653,
      "Ġclarence": 654,
      "ull": 655,
      "Ġwom": 656,
      "broke": 657,
      "Ġch": 658,
      "sh": 659,
      "Ġcit": 660,
      "Ġchild": 661,
      "sw": 662,
      "nder": 663,
      "Ġnurse": 664,
      "ath": 665,
      "Ġmany": 666,
      "les": 667,
      "Ġeven": 668,
      "Ġcomes": 669,
      "Ġtran": 670,
      "Ġfriends": 671,
      "Ġcitiz": 672,
      "Ġpea": 673,
      "rit": 674,
      "aint": 675,
      "Ġshow": 676,
      "Ġboling": 677,
      "Ġbolingbroke": 678,
      "ase": 679,
      "Ġset": 680,
      "Ġfoo": 681,
      "Ġcour": 682,
      "Ġdie": 683,
      "Ġga": 684,
      "Ġnothing": 685,
      "Ġlie": 686,
      "Ġmaster": 687,
      "Ġiii": 688,
      "able": 689,
      "tw": 690,
      "Ġrest": 691,
      "Ġwhose": 692,
      "eth": 693,
      "kes": 694,
      "ors": 695,
      "Ġcam": 696,
      "Ġpe": 697,
      "led": 698,
      "Ġlords": 699,
      "come": 700,
      "Ġtri": 701,
      "Ġhouse": 702,
      "im": 703,
      "oud": 704,
      "Ġcrown": 705,
      "llow": 706,
      "Ġput": 707,
      "atch": 708,
      "let": 709,
      "Ġthought": 710,
      "ide": 711,
      "ella": 712,
      "Ġhence": 713,
      "Ġisabella": 714,
      "Ġsic": 715,
      "Ġmist": 716,
      "Ġres": 717,
      "Ġcomp": 718,
      "Ġbetter": 719,
      "Ġpeace": 720,
      "ks": 721,
      "Ġbra": 722,
      "Ġfriar": 723,
      "Ġleont": 724,
      "Ġleontes": 725,
      "Ġmur": 726,
      "Ġbucking": 727,
      "Ġbuckingham": 728,
      "cio": 729,
      "ud": 730,
      "Ġty": 731,
      "Ġent": 732,
      "Ġgri": 733,
      "Ġthose": 734,
      "Ġunto": 735,
      "Ġdaughter": 736,
      "Ġcould": 737,
      "Ġtong": 738,
      "iss": 739,
      "Ġtwo": 740,
      "Ġstill": 741,
      "Ġgone": 742,
      "atter": 743,
      "Ġprov": 744,
      "Ġbest": 745,
      "Ġyoung": 746,
      "Ġtranio": 747,
      "cius": 748,
      "mb": 749,
      "Ġsle": 750,
      "Ġbes": 751,
      "Ġbid": 752,
      "Ġlit": 753,
      "Ġgentleman": 754,
      "Ġacc": 755,
      "Ġsince": 756,
      "ought": 757,
      "ates": 758,
      "Ġmarcius": 759,
      "Ġlucio": 760,
      "ces": 761,
      "Ġpla": 762,
      "Ġnews": 763,
      "for": 764,
      "Ġgu": 765,
      "Ġlittle": 766,
      "ia": 767,
      "Ġhel": 768,
      "Ġkind": 769,
      "Ġhour": 770,
      "Ġsicinius": 771,
      "rant": 772,
      "Ġdear": 773,
      "Ġend": 774,
      "Ġmarg": 775,
      "Ġhat": 776,
      "Ġwit": 777,
      "aret": 778,
      "ious": 779,
      "Ġthing": 780,
      "Ġface": 781,
      "Ġcapu": 782,
      "Ġmargaret": 783,
      "by": 784,
      "Ġsea": 785,
      "Ġpur": 786,
      "ardon": 787,
      "une": 788,
      "Ġere": 789,
      "liff": 790,
      "Ġsub": 791,
      "Ġelse": 792,
      "ied": 793,
      "Ġsm": 794,
      "Ġiv": 795,
      "Ġfell": 796,
      "Ġcha": 797,
      "ite": 798,
      "Ġonce": 799,
      "Ġhimself": 800,
      "Ġwhom": 801,
      "Ġright": 802,
      "illo": 803,
      "Ġcamillo": 804,
      "old": 805,
      "Ġfind": 806,
      "Ġcur": 807,
      "Ġpower": 808,
      "Ġtra": 809,
      "Ġind": 810,
      "Ġche": 811,
      "Ġvir": 812,
      "alk": 813,
      "Ġtongue": 814,
      "Ġcapulet": 815,
      "ins": 816,
      "Ġthine": 817,
      "unt": 818,
      "ield": 819,
      "cious": 820,
      "zab": 821,
      "Ġau": 822,
      "Ġsen": 823,
      "Ġkat": 824,
      "Ġwel": 825,
      "Ġeli": 826,
      "Ġhold": 827,
      "Ġback": 828,
      "zabeth": 829,
      "Ġelizabeth": 830,
      "yal": 831,
      "Ġtre": 832,
      "iness": 833,
      "ried": 834,
      "Ġhus": 835,
      "Ġwords": 836,
      "Ġnone": 837,
      "Ġforth": 838,
      "Ġneed": 839,
      "Ġconf": 840,
      "harina": 841,
      "Ġhope": 842,
      "Ġearth": 843,
      "Ġkatharina": 844,
      "ect": 845,
      "ith": 846,
      "Ġpardon": 847,
      "Ġhigh": 848,
      "uty": 849,
      "ier": 850,
      "Ġbri": 851,
      "ert": 852,
      "Ġvol": 853,
      "band": 854,
      "Ġben": 855,
      "rer": 856,
      "Ġunder": 857,
      "Ġfollow": 858,
      "Ġafter": 859,
      "cal": 860,
      "Ġimp": 861,
      "Ġban": 862,
      "Ġbus": 863,
      "Ġpom": 864,
      "Ġhome": 865,
      "Ġbring": 866,
      "eech": 867,
      "Ġhusband": 868,
      "dy": 869,
      "Ġes": 870,
      "ory": 871,
      "Ġchan": 872,
      "Ġdre": 873,
      "Ġnat": 874,
      "Ġfort": 875,
      "alt": 876,
      "Ġmadam": 877,
      "ople": 878,
      "son": 879,
      "sper": 880,
      "ret": 881,
      "Ġboy": 882,
      "int": 883,
      "Ġcitizen": 884,
      "get": 885,
      "ken": 886,
      "Ġmind": 887,
      "Ġpar": 888,
      "Ġhapp": 889,
      "Ġfarew": 890,
      "ista": 891,
      "Ġbapt": 892,
      "Ġjust": 893,
      "Ġlucentio": 894,
      "Ġcount": 895,
      "Ġpeople": 896,
      "Ġfarewell": 897,
      "Ġfar": 898,
      "Ġcame": 899,
      "Ġgru": 900,
      "ortens": 901,
      "Ġevery": 902,
      "Ġjoy": 903,
      "reat": 904,
      "Ġcous": 905,
      "Ġhortens": 906,
      "ason": 907,
      "Ġhastings": 908,
      "Ġhands": 909,
      "Ġbaptista": 910,
      "ach": 911,
      "fort": 912,
      "Ġwo": 913,
      "Ġdou": 914,
      "Ġrem": 915,
      "umber": 916,
      "Ġsaid": 917,
      "Ġlaw": 918,
      "Ġhelp": 919,
      "Ġhortensio": 920,
      "ake": 921,
      "Ġfe": 922,
      "utus": 923,
      "men": 924,
      "Ġfull": 925,
      "Ġover": 926,
      "Ġgi": 927,
      "Ġfellow": 928,
      "Ġpass": 929,
      "Ġinto": 930,
      "Ġplease": 931,
      "ged": 932,
      "orse": 933,
      "ither": 934,
      "Ġlight": 935,
      "Ġcause": 936,
      "Ġbrutus": 937,
      "Ġservant": 938,
      "Ġwelcome": 939,
      "Ġcousin": 940,
      "the": 941,
      "Ġturn": 942,
      "Ġtears": 943,
      "Ġmis": 944,
      "Ġpat": 945,
      "Ġwilt": 946,
      "Ġthir": 947,
      "Ġdost": 948,
      "Ġansw": 949,
      "Ġunc": 950,
      "Ġarm": 951,
      "Ġabout": 952,
      "Ġpresent": 953,
      "Ġmistress": 954,
      "lf": 955,
      "Ġthr": 956,
      "Ġshame": 957,
      "Ġdev": 958,
      "Ġprosper": 959,
      "Ġeng": 960,
      "Ġroyal": 961,
      "eve": 962,
      "Ġwrong": 963,
      "Ġfal": 964,
      "Ġob": 965,
      "Ġdi": 966,
      "vere": 967,
      "Ġkill": 968,
      "Ġano": 969,
      "Ġworth": 970,
      "Ġnorth": 971,
      "Ġprovost": 972,
      "Ġplace": 973,
      "igh": 974,
      "Ġsl": 975,
      "Ġland": 976,
      "Ġlast": 977,
      "hip": 978,
      "ary": 979,
      "Ġheard": 980,
      "Ġmarry": 981,
      "ile": 982,
      "vol": 983,
      "xt": 984,
      "Ġsorrow": 985,
      "Ġmeet": 986,
      "Ġstri": 987,
      "ury": 988,
      "vers": 989,
      "Ġmakes": 990,
      "Ġindeed": 991,
      "Ġanswer": 992,
      "vy": 993,
      "Ġsign": 994,
      "Ġbeli": 995,
      "Ġweep": 996,
      "Ġant": 997,
      "Ġdep": 998,
      "Ġgrumio": 999,
      "Ġcliff": 1000,
      "Ġless": 1001,
      "Ġstate": 1002,
      "Ġfall": 1003,
      "Ġcominius": 1004,
      "calus": 1005,
      "Ġescalus": 1006,
      "Ġclifford": 1007,
      "bt": 1008,
      "sand": 1009,
      "Ġdra": 1010,
      "Ġhas": 1011,
      "Ġrich": 1012,
      "Ġkne": 1013,
      "pey": 1014,
      "Ġpaul": 1015,
      "Ġpompey": 1016,
      "fid": 1017,
      "ition": 1018,
      "Ġthousand": 1019,
      "esty": 1020,
      "ister": 1021,
      "Ġeye": 1022,
      "ne": 1023,
      "enes": 1024,
      "Ġhither": 1025,
      "Ġret": 1026,
      "Ġsun": 1027,
      "Ġmaid": 1028,
      "Ġcomfort": 1029,
      "Ġplay": 1030,
      "Ġsound": 1031,
      "ceive": 1032,
      "utio": 1033,
      "Ġwithin": 1034,
      "selves": 1035,
      "Ġgremio": 1036,
      "Ġenem": 1037,
      "Ġmercutio": 1038,
      "Ġfool": 1039,
      "dow": 1040,
      "Ġtalk": 1041,
      "asure": 1042,
      "Ġwhile": 1043,
      "Ġatt": 1044,
      "Ġmurde": 1045,
      "Ġgrief": 1046,
      "Ġanother": 1047,
      "day": 1048,
      "ford": 1049,
      "oly": 1050,
      "Ġsit": 1051,
      "Ġprove": 1052,
      "Ġgracious": 1053,
      "Ġclaud": 1054,
      "Ġaufid": 1055,
      "umberland": 1056,
      "Ġnorthumberland": 1057,
      "Ġclaudio": 1058,
      "Ġaufidius": 1059,
      "Ġchar": 1060,
      "Ġhum": 1061,
      "Ġvill": 1062,
      "Ġonly": 1063,
      "Ġthank": 1064,
      "Ġpoli": 1065,
      "Ġadv": 1066,
      "Ġsleep": 1067,
      "Ġhate": 1068,
      "Ġfalse": 1069,
      "ject": 1070,
      "Ġmont": 1071,
      "Ġrather": 1072,
      "Ġduche": 1073,
      "Ġwoman": 1074,
      "Ġfortune": 1075,
      "Ġduchess": 1076,
      "Ġbar": 1077,
      "Ġpers": 1078,
      "Ġthree": 1079,
      "Ġbed": 1080,
      "eal": 1081,
      "Ġval": 1082,
      "Ġsend": 1083,
      "ult": 1084,
      "Ġthird": 1085,
      "Ġpaulina": 1086,
      "Ġlay": 1087,
      "Ġinst": 1088,
      "Ġfaith": 1089,
      "Ġmurderer": 1090,
      "cus": 1091,
      "ock": 1092,
      "Ġbody": 1093,
      "Ġdisp": 1094,
      "Ġcourt": 1095,
      "Ġtrait": 1096,
      "Ġvirt": 1097,
      "Ġmontag": 1098,
      "balt": 1099,
      "cy": 1100,
      "morrow": 1101,
      "Ġhang": 1102,
      "ute": 1103,
      "Ġass": 1104,
      "Ġsold": 1105,
      "Ġvo": 1106,
      "ised": 1107,
      "ience": 1108,
      "Ġsent": 1109,
      "Ġsla": 1110,
      "Ġmatter": 1111,
      "Ġuse": 1112,
      "Ġshalt": 1113,
      "Ġdeli": 1114,
      "Ġseem": 1115,
      "Ġsword": 1116,
      "ices": 1117,
      "hold": 1118,
      "os": 1119,
      "Ġaut": 1120,
      "Ġfight": 1121,
      "Ġcar": 1122,
      "herd": 1123,
      "Ġlies": 1124,
      "Ġcare": 1125,
      "Ġdeed": 1126,
      "Ġbeseech": 1127,
      "Ġbanish": 1128,
      "xenes": 1129,
      "Ġint": 1130,
      "Ġsovere": 1131,
      "Ġreme": 1132,
      "Ġcommand": 1133,
      "Ġtybalt": 1134,
      "Ġbenvol": 1135,
      "Ġpolixenes": 1136,
      "Ġsovereign": 1137,
      "Ġbenvolio": 1138,
      "if": 1139,
      "ouch": 1140,
      "Ġget": 1141,
      "Ġwish": 1142,
      "Ġshep": 1143,
      "Ġmark": 1144,
      "Ġgrave": 1145,
      "Ġprison": 1146,
      "Ġcountry": 1147,
      "olycus": 1148,
      "Ġvillain": 1149,
      "Ġmontague": 1150,
      "Ġautolycus": 1151,
      ",'": 1152,
      "dd": 1153,
      "uck": 1154,
      "Ġtr": 1155,
      "Ġwant": 1156,
      "Ġdan": 1157,
      "Ġyears": 1158,
      "Ġreven": 1159,
      "Ġreason": 1160,
      "Ġswear": 1161,
      "Ġcontent": 1162,
      "Ġbusiness": 1163,
      "Ġdream": 1164,
      "Ġhappy": 1165,
      "Ġshepherd": 1166,
      "der": 1167,
      "Ġcra": 1168,
      "ced": 1169,
      "Ġsupp": 1170,
      "fect": 1171,
      "Ġholy": 1172,
      "Ġenough": 1173,
      "Ġtruth": 1174,
      "pect": 1175,
      "Ġnature": 1176,
      "Ġdoubt": 1177,
      ".'": 1178,
      "ily": 1179,
      "ten": 1180,
      "Ġbian": 1181,
      "ons": 1182,
      "Ġthings": 1183,
      "Ġwithout": 1184,
      "Ġstre": 1185,
      "Ġstra": 1186,
      "Ġstran": 1187,
      "Ġproud": 1188,
      "Ġarms": 1189,
      "Ġsaw": 1190,
      "ior": 1191,
      "nce": 1192,
      "Ġtend": 1193,
      "hed": 1194,
      "Ġwa": 1195,
      "Ġfoul": 1196,
      "Ġcond": 1197,
      "Ġyield": 1198,
      "Ġpity": 1199,
      "Ġbea": 1200,
      "Ġlives": 1201,
      "Ġprom": 1202,
      "Ġbreak": 1203,
      "Ġclown": 1204,
      "Ġprospero": 1205,
      "Ġbianca": 1206,
      "king": 1207,
      "pen": 1208,
      "ener": 1209,
      "Ġwind": 1210,
      "lack": 1211,
      "umn": 1212,
      "ray": 1213,
      "Ġmess": 1214,
      "Ġfree": 1215,
      "Ġspi": 1216,
      "Ġsave": 1217,
      "Ġlaure": 1218,
      "Ġuncle": 1219,
      "mes": 1220,
      "Ġclo": 1221,
      "ator": 1222,
      "Ġkate": 1223,
      "Ġkiss": 1224,
      "Ġbelieve": 1225,
      "Ġlaurence": 1226,
      "Ġah": 1227,
      "Ġsom": 1228,
      "Ġsister": 1229,
      "Ġwatch": 1230,
      "Ġlam": 1231,
      "Ġden": 1232,
      "Ġgr": 1233,
      "Ġgods": 1234,
      "Ġdeser": 1235,
      "Ġsubject": 1236,
      "ere": 1237,
      "mber": 1238,
      "Ġtem": 1239,
      "rel": 1240,
      "Ġfit": 1241,
      "Ġcity": 1242,
      "Ġinc": 1243,
      "Ġyourself": 1244,
      "Ġdisc": 1245,
      "Ġserving": 1246,
      "Ġpurp": 1247,
      "Ġwoe": 1248,
      "Ġreturn": 1249,
      "ting": 1250,
      "Ġaff": 1251,
      "Ġborn": 1252,
      "hal": 1253,
      "erle": 1254,
      "Ġlan": 1255,
      "Ġdru": 1256,
      "Ġdare": 1257,
      "Ġyours": 1258,
      "Ġdoes": 1259,
      "Ġspo": 1260,
      "Ġlooks": 1261,
      "Ġbloody": 1262,
      "Ġmeans": 1263,
      "Ġthrough": 1264,
      "be": 1265,
      "mm": 1266,
      "Ġaum": 1267,
      "Ġwin": 1268,
      "Ġoath": 1269,
      "Ġhorse": 1270,
      "Ġrequ": 1271,
      "Ġanne": 1272,
      "Ġleft": 1273,
      "Ġbreath": 1274,
      "Ġchildren": 1275,
      "ertain": 1276,
      "Ġvolumn": 1277,
      "gether": 1278,
      "Ġaumerle": 1279,
      "Ġvolumnia": 1280,
      "ac": 1281,
      "ient": 1282,
      "Ġsin": 1283,
      "Ġwound": 1284,
      "Ġfire": 1285,
      "ars": 1286,
      "ans": 1287,
      "ows": 1288,
      "eter": 1289,
      "usic": 1290,
      "Ġcommon": 1291,
      "Ġengland": 1292,
      "Ġtraitor": 1293,
      "air": 1294,
      "ili": 1295,
      "ues": 1296,
      "enger": 1297,
      "Ġtold": 1298,
      "Ġbeat": 1299,
      "Ġmaj": 1300,
      "onder": 1301,
      "Ġmercy": 1302,
      "Ġworthy": 1303,
      "Ġtender": 1304,
      "Ġservingman": 1305,
      "ap": 1306,
      "Ġtit": 1307,
      "Ġsad": 1308,
      "Ġmon": 1309,
      "Ġcry": 1310,
      "Ġlate": 1311,
      "Ġgro": 1312,
      "ush": 1313,
      "Ġsoon": 1314,
      "Ġgold": 1315,
      "Ġsure": 1316,
      "Ġsuit": 1317,
      "fend": 1318,
      "Ġunt": 1319,
      "Ġgrey": 1320,
      "ments": 1321,
      "ches": 1322,
      "Ġgaunt": 1323,
      "form": 1324,
      "Ġmessenger": 1325,
      "Ġsight": 1326,
      "Ġill": 1327,
      "Ġmusic": 1328,
      "Ġfi": 1329,
      "Ġtogether": 1330,
      "Ġwidow": 1331,
      "Ġbeca": 1332,
      "Ġmeth": 1333,
      "Ġeither": 1334,
      "Ġseen": 1335,
      "Ġthyself": 1336,
      "Ġdeep": 1337,
      "Ġbetw": 1338,
      "Ġcold": 1339,
      "Ġreport": 1340,
      "Ġjustice": 1341,
      "Ġdanger": 1342,
      "Ġmajesty": 1343,
      "Ġbecause": 1344,
      "hn": 1345,
      "Ġsi": 1346,
      "Ġmir": 1347,
      "Ġbio": 1348,
      "ndell": 1349,
      "Ġye": 1350,
      "Ġrec": 1351,
      "Ġsuff": 1352,
      "ils": 1353,
      "Ġwarrant": 1354,
      "Ġtrust": 1355,
      "ount": 1356,
      "Ġdays": 1357,
      "Ġjohn": 1358,
      "Ġremember": 1359,
      "Ġbiondell": 1360,
      "Ġbiondello": 1361,
      "hy": 1362,
      "no": 1363,
      "hes": 1364,
      "Ġsil": 1365,
      "Ġmet": 1366,
      "oriz": 1367,
      "Ġcates": 1368,
      "Ġtoward": 1369,
      "ark": 1370,
      "Ġgener": 1371,
      "ade": 1372,
      "earn": 1373,
      "Ġproc": 1374,
      "olk": 1375,
      "Ġheavy": 1376,
      "twas": 1377,
      "Ġparis": 1378,
      "Ġcatesby": 1379,
      "dom": 1380,
      "Ġwat": 1381,
      "Ġfly": 1382,
      "Ġlearn": 1383,
      "Ġgrow": 1384,
      "any": 1385,
      "Ġbold": 1386,
      "ters": 1387,
      "unes": 1388,
      "Ġfoot": 1389,
      "Ġstrange": 1390,
      "folk": 1391,
      "ime": 1392,
      "night": 1393,
      "Ġmin": 1394,
      "Ġheir": 1395,
      "enty": 1396,
      "like": 1397,
      "Ġherm": 1398,
      "Ġlost": 1399,
      "Ġnorfolk": 1400,
      "Ġgentlemen": 1401,
      "Ġpluck": 1402,
      "Ġears": 1403,
      "Ġperson": 1404,
      "ove": 1405,
      "Ġtouch": 1406,
      "Ġair": 1407,
      "Ġage": 1408,
      "Ġwrit": 1409,
      "Ġfound": 1410,
      "Ġnear": 1411,
      "Ġpast": 1412,
      "Ġbehold": 1413,
      "ceed": 1414,
      "Ġready": 1415,
      "ione": 1416,
      "Ġcanst": 1417,
      "Ġsays": 1418,
      "Ġtimes": 1419,
      "Ġhaste": 1420,
      "Ġdesire": 1421,
      "Ġfloriz": 1422,
      "Ġrun": 1423,
      "Ġliege": 1424,
      "Ġsignior": 1425,
      "Ġspirit": 1426,
      "Ġpurpose": 1427,
      "Ġhermione": 1428,
      "Ġflorizel": 1429,
      "dge": 1430,
      "gs": 1431,
      "ner": 1432,
      "up": 1433,
      "vent": 1434,
      "Ġbon": 1435,
      "Ġopen": 1436,
      "Ġinf": 1437,
      "ets": 1438,
      "Ġeach": 1439,
      "oot": 1440,
      "ours": 1441,
      "Ġvis": 1442,
      "ains": 1443,
      "Ġloss": 1444,
      "Ġquick": 1445,
      "aster": 1446,
      "Ġalone": 1447,
      "Ġdesp": 1448,
      "Ġconfess": 1449,
      "Ġdraw": 1450,
      "mit": 1451,
      "ust": 1452,
      "Ġord": 1453,
      "Ġten": 1454,
      "Ġap": 1455,
      "Ġwoo": 1456,
      "Ġbat": 1457,
      "Ġwear": 1458,
      "oop": 1459,
      "Ġread": 1460,
      "Ġrivers": 1461,
      "Ġprof": 1462,
      "Ġbrought": 1463,
      "Ġalas": 1464,
      "Ġstands": 1465,
      "Ġthoughts": 1466,
      "Ġentreat": 1467,
      "Ġslain": 1468,
      "Ġinstru": 1469,
      "Ġground": 1470,
      "ec": 1471,
      "gu": 1472,
      "mond": 1473,
      "rink": 1474,
      "outh": 1475,
      "ined": 1476,
      "Ġlest": 1477,
      "Ġhaving": 1478,
      "Ġstrong": 1479,
      "ides": 1480,
      "Ġfast": 1481,
      "Ġfault": 1482,
      "Ġfrance": 1483,
      "Ġmarried": 1484,
      "Ġthanks": 1485,
      "Ġknows": 1486,
      "Ġdidst": 1487,
      "Ġlew": 1488,
      "Ġtwenty": 1489,
      "Ġservice": 1490,
      "Ġdiv": 1491,
      "Ġstrike": 1492,
      "Ġrichmond": 1493,
      "Ġstraight": 1494,
      "Ġbeauty": 1495,
      "bast": 1496,
      "ring": 1497,
      "Ġsaint": 1498,
      "Ġbound": 1499,
      "Ġfur": 1500,
      "Ġcut": 1501,
      "Ġgrant": 1502,
      "oman": 1503,
      "ley": 1504,
      "ution": 1505,
      "Ġask": 1506,
      "Ġsebast": 1507,
      "mend": 1508,
      "Ġext": 1509,
      "Ġexec": 1510,
      "Ġhard": 1511,
      "Ġwomen": 1512,
      "Ġresol": 1513,
      "ilia": 1514,
      "Ġsebastian": 1515,
      "ning": 1516,
      "te": 1517,
      "Ġfour": 1518,
      "Ġox": 1519,
      "Ġhalf": 1520,
      "Ġlose": 1521,
      "Ġquar": 1522,
      "Ġposs": 1523,
      "ured": 1524,
      "Ġtrib": 1525,
      "Ġmurder": 1526,
      "Ġhours": 1527,
      "Ġsenator": 1528,
      "Ġanton": 1529,
      "Ġenemy": 1530,
      "Ġattend": 1531,
      "Ġcharge": 1532,
      "Ġrevenge": 1533,
      "Ġgeneral": 1534,
      "!'": 1535,
      "ible": 1536,
      "sue": 1537,
      "ship": 1538,
      "Ġac": 1539,
      "Ġsur": 1540,
      "Ġbir": 1541,
      "Ġfore": 1542,
      "Ġfie": 1543,
      "Ġcle": 1544,
      "Ġcal": 1545,
      "Ġduty": 1546,
      "Ġyouth": 1547,
      "Ġnob": 1548,
      "cept": 1549,
      "Ġforg": 1550,
      "Ġitself": 1551,
      "Ġspeed": 1552,
      "Ġpost": 1553,
      "Ġhonest": 1554,
      "Ġoffic": 1555,
      "Ġplant": 1556,
      "Ġcounsel": 1557,
      "twere": 1558,
      "Ġfeel": 1559,
      "Ġantonio": 1560,
      "ild": 1561,
      "ua": 1562,
      "Ġmorn": 1563,
      "Ġyea": 1564,
      "riage": 1565,
      "Ġforb": 1566,
      "Ġform": 1567,
      "ison": 1568,
      "Ġven": 1569,
      "Ġlead": 1570,
      "Ġplain": 1571,
      "Ġprithe": 1572,
      "Ġprep": 1573,
      "Ġdevil": 1574,
      "Ġstreng": 1575,
      "Ġprithee": 1576,
      "ey": 1577,
      "som": 1578,
      "Ġve": 1579,
      "Ġwret": 1580,
      "Ġbit": 1581,
      "Ġfield": 1582,
      "Ġdist": 1583,
      "Ġhell": 1584,
      "Ġge": 1585,
      "Ġsoft": 1586,
      "alo": 1587,
      "Ġshort": 1588,
      "Ġcast": 1589,
      "Ġknown": 1590,
      "fection": 1591,
      "Ġunless": 1592,
      "Ġfearful": 1593,
      "Ġheavens": 1594,
      "Ġguil": 1595,
      "Ġchange": 1596,
      "Ġpatience": 1597,
      "Ġdeliver": 1598,
      "Ġoxford": 1599,
      "bow": 1600,
      "dle": 1601,
      "ixt": 1602,
      "osed": 1603,
      "ted": 1604,
      "Ġter": 1605,
      "Ġwed": 1606,
      "Ġwonder": 1607,
      "Ġburn": 1608,
      "rest": 1609,
      "Ġlad": 1610,
      "Ġdam": 1611,
      "Ġyes": 1612,
      "Ġstir": 1613,
      "cks": 1614,
      "Ġbosom": 1615,
      "Ġmarriage": 1616,
      "Ġtale": 1617,
      "ortal": 1618,
      "Ġsomething": 1619,
      "Ġdish": 1620,
      "Ġhearts": 1621,
      "Ġcitizens": 1622,
      "Ġbrave": 1623,
      "Ġlewis": 1624,
      "gue": 1625,
      "most": 1626,
      "of": 1627,
      "und": 1628,
      "ze": 1629,
      "zalo": 1630,
      "Ġari": 1631,
      "Ġsat": 1632,
      "Ġside": 1633,
      "onzalo": 1634,
      "Ġgonzalo": 1635,
      "ries": 1636,
      "roth": 1637,
      "rah": 1638,
      "Ġprop": 1639,
      "Ġpoint": 1640,
      "Ġwork": 1641,
      "inks": 1642,
      "Ġserve": 1643,
      "Ġpeter": 1644,
      "Ġpale": 1645,
      "Ġbreat": 1646,
      "Ġpret": 1647,
      "Ġharm": 1648,
      "Ġcompany": 1649,
      "Ġwithal": 1650,
      "Ġhighness": 1651,
      "Ġvols": 1652,
      "Ġvirtue": 1653,
      "Ġvoices": 1654,
      "bury": 1655,
      "com": 1656,
      "ges": 1657,
      "ial": 1658,
      "jo": 1659,
      "Ġsing": 1660,
      "Ġwast": 1661,
      "Ġbur": 1662,
      "orge": 1663,
      "Ġcro": 1664,
      "lly": 1665,
      "Ġpra": 1666,
      "Ġbecome": 1667,
      "oward": 1668,
      "Ġloving": 1669,
      "Ġneither": 1670,
      "Ġnext": 1671,
      "Ġsirrah": 1672,
      "Ġworse": 1673,
      "Ġperd": 1674,
      "Ġhark": 1675,
      "Ġbegg": 1676,
      "Ġknew": 1677,
      "Ġstrength": 1678,
      "cher": 1679,
      "caster": 1680,
      "wer": 1681,
      "Ġact": 1682,
      "Ġsk": 1683,
      "Ġbad": 1684,
      "Ġfet": 1685,
      "Ġdire": 1686,
      "set": 1687,
      "Ġforget": 1688,
      "Ġste": 1689,
      "ished": 1690,
      "Ġver": 1691,
      "Ġseek": 1692,
      "ump": 1693,
      "Ġsake": 1694,
      "Ġpleasure": 1695,
      "ched": 1696,
      "Ġelbow": 1697,
      "Ġcloud": 1698,
      "Ġenter": 1699,
      "Ġcheer": 1700,
      "Ġvirg": 1701,
      "Ġenemies": 1702,
      "Ġlancaster": 1703,
      "Ġmethinks": 1704,
      "Ġsuffer": 1705,
      "iet": 1706,
      "iers": 1707,
      "lish": 1708,
      "used": 1709,
      "Ġim": 1710,
      "Ġmow": 1711,
      "ench": 1712,
      "Ġpie": 1713,
      "Ġtower": 1714,
      "Ġgar": 1715,
      "Ġgates": 1716,
      "Ġwise": 1717,
      "Ġweak": 1718,
      "oose": 1719,
      "ita": 1720,
      "its": 1721,
      "Ġmock": 1722,
      "anda": 1723,
      "Ġrat": 1724,
      "Ġcoming": 1725,
      "els": 1726,
      "rent": 1727,
      "Ġabs": 1728,
      "Ġexp": 1729,
      "Ġsouls": 1730,
      "Ġconsent": 1731,
      "Ġcourse": 1732,
      "Ġchee": 1733,
      "Ġgiven": 1734,
      "ceived": 1735,
      "Ġtitle": 1736,
      "Ġbetween": 1737,
      "Ġmiranda": 1738,
      "Ġorder": 1739,
      "Ġfurther": 1740,
      "ail": 1741,
      "cess": 1742,
      "chan": 1743,
      "ub": 1744,
      "Ġsick": 1745,
      "Ġblack": 1746,
      "Ġemb": 1747,
      "Ġreg": 1748,
      "Ġlips": 1749,
      "Ġself": 1750,
      "Ġjest": 1751,
      "Ġthemselves": 1752,
      "Ġpoison": 1753,
      "Ġtook": 1754,
      "Ġmerry": 1755,
      "Ġappear": 1756,
      "Ġconsul": 1757,
      "Ġgave": 1758,
      "dden": 1759,
      "Ġgeorge": 1760,
      "pes": 1761,
      "Ġsame": 1762,
      "Ġwall": 1763,
      "Ġmal": 1764,
      "ready": 1765,
      "Ġcurse": 1766,
      "Ġdro": 1767,
      "Ġped": 1768,
      "Ġthri": 1769,
      "Ġthrow": 1770,
      "Ġwis": 1771,
      "Ġissue": 1772,
      "oof": 1773,
      "east": 1774,
      "isf": 1775,
      "Ġmove": 1776,
      "Ġsucc": 1777,
      "Ġmarch": 1778,
      "Ġproceed": 1779,
      "Ġsworn": 1780,
      "Ġalong": 1781,
      "Ġalready": 1782,
      "Ġoffice": 1783,
      "Ġbreast": 1784,
      "Ġsoldier": 1785,
      "Ġprepare": 1786,
      "bray": 1787,
      "gn": 1788,
      "hood": 1789,
      "ls": 1790,
      "lst": 1791,
      "od": 1792,
      "ses": 1793,
      "Ġsly": 1794,
      "Ġmouth": 1795,
      "Ġbook": 1796,
      "ndon": 1797,
      "Ġfeast": 1798,
      "Ġpay": 1799,
      "Ġthom": 1800,
      "anley": 1801,
      "Ġhun": 1802,
      "Ġstanley": 1803,
      "Ġred": 1804,
      "Ġliber": 1805,
      "Ġgoes": 1806,
      "vern": 1807,
      "Ġloves": 1808,
      "ions": 1809,
      "Ġwhilst": 1810,
      "Ġknock": 1811,
      "Ġmarian": 1812,
      "Ġhereford": 1813,
      "Ġbless": 1814,
      "Ġloved": 1815,
      "Ġgreen": 1816,
      "Ġsons": 1817,
      "Ġjoin": 1818,
      "Ġbegin": 1819,
      "Ġbrief": 1820,
      "Ġsoldiers": 1821,
      "Ġspoke": 1822,
      "Ġrequest": 1823,
      "Ġdangerous": 1824,
      "Ġvisit": 1825,
      "Ġbattle": 1826,
      "Ġquarrel": 1827,
      "Ġtribunes": 1828,
      "Ġmorning": 1829,
      "Ġsatisf": 1830,
      "Ġperdita": 1831,
      "Ġfetch": 1832,
      "Ġmowbray": 1833,
      "Ġthomas": 1834,
      "gry": 1835,
      "nk": 1836,
      "uous": 1837,
      "vour": 1838,
      "Ġest": 1839,
      "Ġsigh": 1840,
      "Ġmortal": 1841,
      "Ġbrow": 1842,
      "Ġpen": 1843,
      "Ġoften": 1844,
      "Ġins": 1845,
      "Ġinter": 1846,
      "Ġund": 1847,
      "Ġkings": 1848,
      "Ġfrown": 1849,
      "Ġkna": 1850,
      "Ġhot": 1851,
      "Ġenc": 1852,
      "Ġhadst": 1853,
      "Ġflatter": 1854,
      "Ġfoe": 1855,
      "Ġvict": 1856,
      "Ġrespect": 1857,
      "Ġtrou": 1858,
      "Ġdeny": 1859,
      "Ġwounds": 1860,
      "Ġwater": 1861,
      "Ġofficer": 1862,
      "Ġmariana": 1863,
      "ging": 1864,
      "nown": 1865,
      "ures": 1866,
      "hem": 1867,
      "Ġble": 1868,
      "Ġopp": 1869,
      "Ġdest": 1870,
      "Ġdrink": 1871,
      "owers": 1872,
      "rity": 1873,
      "Ġem": 1874,
      "each": 1875,
      "Ġgot": 1876,
      "Ġspeech": 1877,
      "Ġprin": 1878,
      "Ġthence": 1879,
      "Ġwars": 1880,
      "Ġsafe": 1881,
      "Ġbaw": 1882,
      "Ġpriv": 1883,
      "Ġpresence": 1884,
      "Ġwitness": 1885,
      "Ġbride": 1886,
      "Ġdread": 1887,
      "Ġvoice": 1888,
      "Ġsomet": 1889,
      "Ġlament": 1890,
      "bs": 1891,
      "vo": 1892,
      "Ġaction": 1893,
      "Ġwert": 1894,
      "Ġbow": 1895,
      "Ġfra": 1896,
      "Ġfill": 1897,
      "Ġpit": 1898,
      "Ġtown": 1899,
      "Ġgall": 1900,
      "rist": 1901,
      "Ġev": 1902,
      "Ġeat": 1903,
      "Ġreb": 1904,
      "alth": 1905,
      "Ġanci": 1906,
      "Ġseat": 1907,
      "light": 1908,
      "Ġsudden": 1909,
      "Ġlondon": 1910,
      "Ġcase": 1911,
      "Ġunw": 1912,
      "laim": 1913,
      "Ġdef": 1914,
      "Ġconc": 1915,
      "Ġwash": 1916,
      "Ġseems": 1917,
      "Ġusur": 1918,
      "Ġwherein": 1919,
      "Ġworship": 1920,
      "empt": 1921,
      "Ġbuy": 1922,
      "Ġrage": 1923,
      "Ġscorn": 1924,
      "hamber": 1925,
      "Ġmighty": 1926,
      "Ġthrone": 1927,
      "Ġpromise": 1928,
      "Ġclose": 1929,
      "Ġsomer": 1930,
      "Ġdishon": 1931,
      "Ġsuccess": 1932,
      "Ġancient": 1933,
      "iant": 1934,
      "ns": 1935,
      "su": 1936,
      "ura": 1937,
      "Ġfres": 1938,
      "Ġcertain": 1939,
      "Ġchamber": 1940,
      "Ġlart": 1941,
      "essed": 1942,
      "Ġforward": 1943,
      "Ġmeasure": 1944,
      "Ġhur": 1945,
      "Ġthither": 1946,
      "Ġvow": 1947,
      "ided": 1948,
      "Ġsumm": 1949,
      "Ġcommend": 1950,
      "Ġsac": 1951,
      "ishop": 1952,
      "Ġearl": 1953,
      "Ġprayers": 1954,
      "Ġscar": 1955,
      "Ġprincely": 1956,
      "ally": 1957,
      "Ġappro": 1958,
      "Ġchur": 1959,
      "Ġchrist": 1960,
      "Ġsmall": 1961,
      "Ġvaliant": 1962,
      "Ġdeeds": 1963,
      "Ġbitter": 1964,
      "Ġsomerset": 1965,
      "Ġlartius": 1966,
      "ased": 1967,
      "bed": 1968,
      "bit": 1969,
      "cliff": 1970,
      "ding": 1971,
      "sp": 1972,
      "vest": 1973,
      "Ġsland": 1974,
      "Ġfive": 1975,
      "Ġcol": 1976,
      "Ġcoward": 1977,
      "Ġow": 1978,
      "Ġlab": 1979,
      "Ġder": 1980,
      "Ġdark": 1981,
      "Ġpal": 1982,
      "esh": 1983,
      "stand": 1984,
      "ents": 1985,
      "Ġur": 1986,
      "Ġviol": 1987,
      "Ġmoon": 1988,
      "Ġkingdom": 1989,
      "Ġfaul": 1990,
      "Ġmast": 1991,
      "Ġroman": 1992,
      "antage": 1993,
      "oney": 1994,
      "Ġwhence": 1995,
      "Ġbase": 1996,
      "Ġglad": 1997,
      "Ġabh": 1998,
      "Ġabove": 1999,
      "Ġalmost": 2000,
      "Ġoffer": 2001,
      "Ġflesh": 2002,
      "Ġheads": 2003,
      "Ġaffection": 2004,
      "Ġkeeper": 2005,
      "Ġtriump": 2006,
      "Ġpatient": 2007,
      "Ġpresently": 2008,
      "Ġslave": 2009,
      "Ġcondem": 2010,
      "Ġpretty": 2011,
      "Ġcross": 2012,
      "Ġratcliff": 2013,
      "Ġfaults": 2014,
      "ban": 2015,
      "ying": 2016,
      "Ġ3": 2017,
      "Ġtut": 2018,
      "Ġalack": 2019,
      "Ġshi": 2020,
      "Ġsus": 2021,
      "Ġwak": 2022,
      "hile": 2023,
      "Ġkins": 2024,
      "race": 2025,
      "rust": 2026,
      "Ġwhether": 2027,
      "Ġdefend": 2028,
      "Ġamong": 2029,
      "Ġprot": 2030,
      "Ġmayor": 2031,
      "Ġleast": 2032,
      "Ġperform": 2033,
      "ainted": 2034,
      "Ġdepart": 2035,
      "Ġsubjects": 2036,
      "Ġtemp": 2037,
      "Ġtowards": 2038,
      "Ġforbid": 2039,
      "Ġchurch": 2040,
      "ace": 2041,
      "host": 2042,
      "way": 2043,
      "Ġut": 2044,
      "Ġtor": 2045,
      "Ġtear": 2046,
      "Ġmid": 2047,
      "Ġcreat": 2048,
      "Ġocc": 2049,
      "Ġgir": 2050,
      "Ġghost": 2051,
      "ste": 2052,
      "Ġhap": 2053,
      "Ġbeast": 2054,
      "Ġhide": 2055,
      "Ġinj": 2056,
      "right": 2057,
      "Ġforsw": 2058,
      "ool": 2059,
      "ooth": 2060,
      "Ġstru": 2061,
      "Ġliving": 2062,
      "Ġanon": 2063,
      "Ġcapt": 2064,
      "Ġbohem": 2065,
      "Ġran": 2066,
      "feit": 2067,
      "Ġwouldst": 2068,
      "ept": 2069,
      "Ġtrump": 2070,
      "Ġgrand": 2071,
      "Ġhearing": 2072,
      "Ġawhile": 2073,
      "Ġcurtis": 2074,
      "Ġchance": 2075,
      "Ġobey": 2076,
      "Ġweeping": 2077,
      "Ġdispatch": 2078,
      "Ġvirtuous": 2079,
      "Ġslaughter": 2080,
      "Ġintend": 2081,
      "Ġdeserved": 2082,
      "Ġmusician": 2083,
      "Ġproclaim": 2084,
      "Ġexecution": 2085,
      "Ġpossess": 2086,
      "Ġdamn": 2087,
      "Ġariel": 2088,
      "Ġbreathe": 2089,
      "Ġvirgilia": 2090,
      "Ġbawd": 2091,
      "Ġusurp": 2092,
      "bly": 2093,
      "gg": 2094,
      "ked": 2095,
      "over": 2096,
      "Ġwalk": 2097,
      "Ġmatch": 2098,
      "Ġmild": 2099,
      "Ġbli": 2100,
      "ines": 2101,
      "Ġfam": 2102,
      "Ġfond": 2103,
      "hind": 2104,
      "Ġpain": 2105,
      "onus": 2106,
      "inger": 2107,
      "Ġoffend": 2108,
      "Ġbehind": 2109,
      "Ġinno": 2110,
      "ats": 2111,
      "rish": 2112,
      "eds": 2113,
      "Ġeas": 2114,
      "Ġstop": 2115,
      "Ġref": 2116,
      "Ġlist": 2117,
      "lic": 2118,
      "Ġourselves": 2119,
      "Ġgoodly": 2120,
      "Ġletters": 2121,
      "Ġblows": 2122,
      "Ġwherefore": 2123,
      "Ġworst": 2124,
      "Ġenjo": 2125,
      "igonus": 2126,
      "Ġjud": 2127,
      "cience": 2128,
      "Ġoffence": 2129,
      "perate": 2130,
      "Ġgreater": 2131,
      "ully": 2132,
      "ledge": 2133,
      "imes": 2134,
      "Ġcompl": 2135,
      "Ġgrie": 2136,
      "Ġslew": 2137,
      "Ġbesides": 2138,
      "Ġtreason": 2139,
      "inted": 2140,
      "Ġlawful": 2141,
      "Ġantigonus": 2142,
      "Ġbarn": 2143,
      "Ġquickly": 2144,
      "Ġextre": 2145,
      "Ġbirth": 2146,
      "Ġguilty": 2147,
      "Ġladies": 2148,
      "ural": 2149,
      "Ġcondemn": 2150,
      "Ġbohemia": 2151,
      "fully": 2152,
      "iv": 2153,
      "mble": 2154,
      "ror": 2155,
      "so": 2156,
      "uff": 2157,
      "Ġteach": 2158,
      "Ġign": 2159,
      "Ġmed": 2160,
      "Ġfled": 2161,
      "Ġdry": 2162,
      "Ġheld": 2163,
      "vel": 2164,
      "Ġwild": 2165,
      "utland": 2166,
      "Ġef": 2167,
      "Ġnote": 2168,
      "isure": 2169,
      "Ġsole": 2170,
      "Ġreign": 2171,
      "cked": 2172,
      "Ġangry": 2173,
      "Ġgovern": 2174,
      "Ġwhither": 2175,
      "Ġshore": 2176,
      "Ġneigh": 2177,
      "Ġrutland": 2178,
      "Ġknee": 2179,
      "Ġunk": 2180,
      "Ġunp": 2181,
      "Ġmars": 2182,
      "Ġdec": 2183,
      "Ġdem": 2184,
      "Ġquiet": 2185,
      "Ġconce": 2186,
      "Ġblow": 2187,
      "oler": 2188,
      "astard": 2189,
      "Ġtruly": 2190,
      "Ġleisure": 2191,
      "Ġexc": 2192,
      "Ġexeter": 2193,
      "Ġlaid": 2194,
      "Ġadd": 2195,
      "agen": 2196,
      "Ġpleas": 2197,
      "Ġisabel": 2198,
      "Ġlonger": 2199,
      "Ġcho": 2200,
      "Ġshows": 2201,
      "force": 2202,
      "Ġneeds": 2203,
      "Ġkneel": 2204,
      "Ġgolden": 2205,
      "ustom": 2206,
      "comes": 2207,
      "Ġpedant": 2208,
      "Ġdishonour": 2209,
      "Ġslander": 2210,
      "Ġderby": 2211,
      "Ġmasters": 2212,
      "ale": 2213,
      "ack": 2214,
      "ever": 2215,
      "gain": 2216,
      "mity": 2217,
      "oss": 2218,
      "ual": 2219,
      "zen": 2220,
      "zed": 2221,
      "Ġwon": 2222,
      "Ġmut": 2223,
      "Ġfat": 2224,
      "Ġfine": 2225,
      "Ġyear": 2226,
      "Ġpad": 2227,
      "ingly": 2228,
      "Ġoft": 2229,
      "Ġnoise": 2230,
      "Ġbel": 2231,
      "Ġaside": 2232,
      "Ġva": 2233,
      "Ġdoing": 2234,
      "Ġdoom": 2235,
      "rupt": 2236,
      "Ġseiz": 2237,
      "live": 2238,
      "Ġfavour": 2239,
      "Ġwhite": 2240,
      "Ġneck": 2241,
      "Ġrough": 2242,
      "Ġshed": 2243,
      "Ġconst": 2244,
      "Ġletter": 2245,
      "Ġamen": 2246,
      "Ġtail": 2247,
      "Ġwarm": 2248,
      "Ġspeaks": 2249,
      "Ġlack": 2250,
      "Ġcontin": 2251,
      "Ġchoose": 2252,
      "Ġsense": 2253,
      "Ġremain": 2254,
      "Ġenglish": 2255,
      "Ġsentence": 2256,
      "osition": 2257,
      "Ġbanishment": 2258,
      "Ġprisoner": 2259,
      "Ġuntil": 2260,
      "Ġsix": 2261,
      "Ġplantagen": 2262,
      "Ġclouds": 2263,
      "Ġliberty": 2264,
      "Ġencoun": 2265,
      "Ġtrouble": 2266,
      "Ġfresh": 2267,
      "Ġignor": 2268,
      "Ġneighb": 2269,
      "Ġpadua": 2270,
      ":'": 2271,
      "ift": 2272,
      "ler": 2273,
      "rous": 2274,
      "ugh": 2275,
      "well": 2276,
      "Ġx": 2277,
      "Ġsch": 2278,
      "Ġsli": 2279,
      "Ġsort": 2280,
      "Ġmorrow": 2281,
      "Ġbig": 2282,
      "Ġbishop": 2283,
      "Ġcr": 2284,
      "Ġcru": 2285,
      "Ġodd": 2286,
      "Ġlend": 2287,
      "Ġdrown": 2288,
      "ony": 2289,
      "Ġgard": 2290,
      "Ġbend": 2291,
      "ators": 2292,
      "Ġhund": 2293,
      "Ġstor": 2294,
      "Ġstood": 2295,
      "Ġstain": 2296,
      "Ġstep": 2297,
      "Ġlived": 2298,
      "Ġvain": 2299,
      "Ġdog": 2300,
      "ider": 2301,
      "urs": 2302,
      "ames": 2303,
      "amps": 2304,
      "ardine": 2305,
      "Ġunf": 2306,
      "Ġquo": 2307,
      "Ġconqu": 2308,
      "iles": 2309,
      "Ġblessed": 2310,
      "Ġbroke": 2311,
      "Ġlust": 2312,
      "Ġpage": 2313,
      "ired": 2314,
      "Ġsecret": 2315,
      "Ġbears": 2316,
      "Ġconscience": 2317,
      "Ġwomb": 2318,
      "Ġseal": 2319,
      "Ġdouble": 2320,
      "then": 2321,
      "Ġobed": 2322,
      "Ġdrunk": 2323,
      "acle": 2324,
      "Ġbones": 2325,
      "Ġdespair": 2326,
      "Ġforgot": 2327,
      "Ġpiece": 2328,
      "Ġvictory": 2329,
      "Ġlabour": 2330,
      "Ġbarnardine": 2331,
      "Ġplantagenet": 2332,
      "Ġhundred": 2333,
      "!--": 2334,
      "cing": 2335,
      "ds": 2336,
      "ners": 2337,
      "ron": 2338,
      "ume": 2339,
      "Ġtar": 2340,
      "head": 2341,
      "Ġalive": 2342,
      "Ġsal": 2343,
      "Ġmant": 2344,
      "Ġmoney": 2345,
      "Ġbastard": 2346,
      "read": 2347,
      "Ġlen": 2348,
      "Ġlow": 2349,
      "Ġdorse": 2350,
      "eness": 2351,
      "Ġpun": 2352,
      "aring": 2353,
      "thor": 2354,
      "Ġthreat": 2355,
      "vey": 2356,
      "ety": 2357,
      "Ġkept": 2358,
      "Ġyourselves": 2359,
      "asion": 2360,
      "Ġmod": 2361,
      "Ġshake": 2362,
      "Ġshadow": 2363,
      "Ġseven": 2364,
      "amp": 2365,
      "Ġherself": 2366,
      "Ġuns": 2367,
      "ular": 2368,
      "Ġswift": 2369,
      "Ġknowledge": 2370,
      "umb": 2371,
      "Ġenv": 2372,
      "Ġsaf": 2373,
      "ieu": 2374,
      "Ġglory": 2375,
      "ounds": 2376,
      "lock": 2377,
      "Ġrob": 2378,
      "Ġdesperate": 2379,
      "Ġpride": 2380,
      "Ġtwice": 2381,
      "Ġadieu": 2382,
      "Ġcounter": 2383,
      "Ġprecious": 2384,
      "twixt": 2385,
      "Ġentertain": 2386,
      "Ġaccount": 2387,
      "Ġguess": 2388,
      "Ġauthor": 2389,
      "Ġbushy": 2390,
      "Ġwoes": 2391,
      "Ġfew": 2392,
      "Ġlands": 2393,
      "Ġknees": 2394,
      "Ġcondition": 2395,
      "Ġwatchman": 2396,
      "Ġvenge": 2397,
      "Ġbeggar": 2398,
      "Ġsteel": 2399,
      "Ġimag": 2400,
      "Ġwisdom": 2401,
      "Ġkinsman": 2402,
      "Ġstruck": 2403,
      "Ġeffect": 2404,
      "Ġencounter": 2405,
      "Ġxi": 2406,
      "Ġdorset": 2407,
      ";'": 2408,
      "done": 2409,
      "gment": 2410,
      "ires": 2411,
      "iance": 2412,
      "iled": 2413,
      "lay": 2414,
      "Ġtent": 2415,
      "Ġsour": 2416,
      "Ġsamps": 2417,
      "Ġfru": 2418,
      "Ġfought": 2419,
      "Ġdance": 2420,
      "Ġdied": 2421,
      "Ġdeter": 2422,
      "Ġhealth": 2423,
      "Ġhair": 2424,
      "Ġbecomes": 2425,
      "lect": 2426,
      "Ġforce": 2427,
      "Ġeld": 2428,
      "Ġstud": 2429,
      "Ġstars": 2430,
      "estion": 2431,
      "Ġmoved": 2432,
      "Ġsever": 2433,
      "Ġgoing": 2434,
      "Ġrise": 2435,
      "Ġthereof": 2436,
      "Ġmanner": 2437,
      "ility": 2438,
      "Ġjudge": 2439,
      "Ġdism": 2440,
      "Ġabro": 2441,
      "Ġbrothers": 2442,
      "Ġlaugh": 2443,
      "Ġflowers": 2444,
      "Ġcalls": 2445,
      "Ġhonours": 2446,
      "Ġhonourable": 2447,
      "ations": 2448,
      "Ġcontr": 2449,
      "Ġrepent": 2450,
      "Ġdeadly": 2451,
      "Ġcapit": 2452,
      "Ġlordship": 2453,
      "Ġbraken": 2454,
      "Ġguest": 2455,
      "Ġguard": 2456,
      "Ġunderstand": 2457,
      "Ġremed": 2458,
      "Ġarmy": 2459,
      "Ġpersu": 2460,
      "Ġdreams": 2461,
      "Ġpromised": 2462,
      "Ġacqu": 2463,
      "Ġwretched": 2464,
      "Ġcheeks": 2465,
      "Ġscarce": 2466,
      "Ġtriumph": 2467,
      "Ġblind": 2468,
      "Ġenjoy": 2469,
      "gainst": 2470,
      "Ġquoth": 2471,
      "Ġsampson": 2472,
      "Ġdeterm": 2473,
      "Ġbrakenbury": 2474,
      "'re": 2475,
      ":--": 2476,
      "eem": 2477,
      "go": 2478,
      "gory": 2479,
      "iest": 2480,
      "ife": 2481,
      "rance": 2482,
      "rrel": 2483,
      "ude": 2484,
      "Ġtry": 2485,
      "heart": 2486,
      "Ġaid": 2487,
      "Ġsn": 2488,
      "Ġwra": 2489,
      "Ġwest": 2490,
      "Ġimm": 2491,
      "Ġmour": 2492,
      "Ġmount": 2493,
      "reed": 2494,
      "orious": 2495,
      "Ġfroth": 2496,
      "Ġcred": 2497,
      "Ġcried": 2498,
      "Ġcustom": 2499,
      "Ġnap": 2500,
      "though": 2501,
      "ated": 2502,
      "irc": 2503,
      "ities": 2504,
      "Ġstab": 2505,
      "Ġsteal": 2506,
      "Ġrenown": 2507,
      "Ġliest": 2508,
      "ads": 2509,
      "ract": 2510,
      "als": 2511,
      "Ġfare": 2512,
      "Ġfaire": 2513,
      "Ġmaking": 2514,
      "Ġours": 2515,
      "Ġspent": 2516,
      "Ġwhiles": 2517,
      "Ġbod": 2518,
      "Ġunb": 2519,
      "Ġdull": 2520,
      "lace": 2521,
      "Ġdeg": 2522,
      "Ġdece": 2523,
      "Ġblush": 2524,
      "Ġgreet": 2525,
      "Ġgregory": 2526,
      "Ġearly": 2527,
      "Ġpriest": 2528,
      "mple": 2529,
      "Ġcommit": 2530,
      "Ġvile": 2531,
      "Ġtyrrel": 2532,
      "Ġbids": 2533,
      "Ġkindness": 2534,
      "Ġkindred": 2535,
      "Ġsmile": 2536,
      "Ġcharity": 2537,
      "Ġbenef": 2538,
      "Ġoverdone": 2539,
      "Ġgives": 2540,
      "Ġfoolish": 2541,
      "Ġhumble": 2542,
      "Ġvalour": 2543,
      "Ġincl": 2544,
      "Ġsilence": 2545,
      "Ġwretch": 2546,
      "Ġsummer": 2547,
      "ways": 2548,
      "Ġgirl": 2549,
      "Ġdemand": 2550,
      "Ġcruel": 2551,
      "den": 2552,
      "ek": 2553,
      "ew": 2554,
      "got": 2555,
      "house": 2556,
      "med": 2557,
      "pir": 2558,
      "shi": 2559,
      "sing": 2560,
      "under": 2561,
      "Ġer": 2562,
      "Ġwre": 2563,
      "Ġwent": 2564,
      "Ġidle": 2565,
      "Ġboot": 2566,
      "ining": 2567,
      "Ġfan": 2568,
      "Ġfaint": 2569,
      "Ġcre": 2570,
      "Ġcirc": 2571,
      "Ġdin": 2572,
      "Ġdwell": 2573,
      "Ġpier": 2574,
      "Ġthro": 2575,
      "Ġbeha": 2576,
      "Ġweary": 2577,
      "roy": 2578,
      "Ġstone": 2579,
      "ords": 2580,
      "Ġvie": 2581,
      "alm": 2582,
      "ash": 2583,
      "ask": 2584,
      "Ġrid": 2585,
      "Ġtherein": 2586,
      "Ġconvey": 2587,
      "Ġama": 2588,
      "Ġblame": 2589,
      "Ġblunt": 2590,
      "Ġenvy": 2591,
      "Ġglass": 2592,
      "Ġexce": 2593,
      "Ġhonesty": 2594,
      "Ġrot": 2595,
      "Ġplot": 2596,
      "Ġthinks": 2597,
      "Ġflower": 2598,
      "aked": 2599,
      "Ġcounty": 2600,
      "Ġfoes": 2601,
      "Ġparty": 2602,
      "Ġharry": 2603,
      "Ġcover": 2604,
      "Ġothers": 2605,
      "Ġtrial": 2606,
      "Ġtyrant": 2607,
      "Ġsubst": 2608,
      "Ġbright": 2609,
      "Ġimpri": 2610,
      "Ġmiser": 2611,
      "Ġassist": 2612,
      "Ġcarry": 2613,
      "ify": 2614,
      "Ġcrave": 2615,
      "Ġwail": 2616,
      "Ġwinter": 2617,
      "Ġmonth": 2618,
      "Ġdivine": 2619,
      "Ġvolsces": 2620,
      "Ġwalls": 2621,
      "Ġmalice": 2622,
      "Ġsatisfied": 2623,
      "Ġprivate": 2624,
      "Ġconcl": 2625,
      "Ġvengeance": 2626,
      "Ġabroad": 2627,
      "Ġview": 2628,
      "bl": 2629,
      "dra": 2630,
      "ict": 2631,
      "ny": 2632,
      "she": 2633,
      "ser": 2634,
      "sic": 2635,
      "tion": 2636,
      "with": 2637,
      "Ġtroth": 2638,
      "Ġwag": 2639,
      "Ġwench": 2640,
      "Ġmam": 2641,
      "Ġmil": 2642,
      "Ġbite": 2643,
      "rees": 2644,
      "orous": 2645,
      "Ġfain": 2646,
      "Ġfeed": 2647,
      "Ġcup": 2648,
      "ern": 2649,
      "eria": 2650,
      "llo": 2651,
      "Ġnine": 2652,
      "Ġpil": 2653,
      "ona": 2654,
      "ones": 2655,
      "Ġgown": 2656,
      "Ġgrown": 2657,
      "vell": 2658,
      "Ġwither": 2659,
      "Ġbef": 2660,
      "Ġmeat": 2661,
      "Ġhol": 2662,
      "Ġstoop": 2663,
      "Ġbutcher": 2664,
      "Ġreceived": 2665,
      "Ġvice": 2666,
      "ioli": 2667,
      "ident": 2668,
      "ament": 2669,
      "Ġallow": 2670,
      "ander": 2671,
      "Ġsport": 2672,
      "Ġspake": 2673,
      "Ġshri": 2674,
      "Ġshrew": 2675,
      "Ġnecess": 2676,
      "Ġcaius": 2677,
      "Ġproof": 2678,
      "law": 2679,
      "Ġquite": 2680,
      "Ġquestion": 2681,
      "Ġtaken": 2682,
      "Ġarri": 2683,
      "Ġmayst": 2684,
      "Ġsail": 2685,
      "Ġfirm": 2686,
      "rench": 2687,
      "Ġalways": 2688,
      "Ġcorse": 2689,
      "Ġcorioli": 2690,
      "Ġawake": 2691,
      "Ġprev": 2692,
      "Ġprevent": 2693,
      "Ġmeaning": 2694,
      "Ġcourage": 2695,
      "Ġmistake": 2696,
      "Ġtyran": 2697,
      "Ġtongues": 2698,
      "Ġpursu": 2699,
      "Ġchanged": 2700,
      "Ġcounten": 2701,
      "Ġfellows": 2702,
      "Ġbelike": 2703,
      "Ġdeputy": 2704,
      "Ġdrawn": 2705,
      "Ġhumour": 2706,
      "Ġvaleria": 2707,
      "Ġtraitors": 2708,
      "Ġswords": 2709,
      "Ġrememb": 2710,
      "Ġdeserve": 2711,
      "Ġgross": 2712,
      "Ġbetwixt": 2713,
      "Ġbona": 2714,
      "Ġdespite": 2715,
      "Ġprofess": 2716,
      "Ġformer": 2717,
      "Ġcastle": 2718,
      "Ġprophe": 2719,
      "Ġdirect": 2720,
      "Ġembrace": 2721,
      "Ġdrop": 2722,
      "Ġsometime": 2723,
      "Ġevil": 2724,
      "Ġsacred": 2725,
      "Ġabhors": 2726,
      "Ġcaptain": 2727,
      "Ġeasy": 2728,
      "Ġjudgment": 2729,
      "Ġmarshal": 2730,
      "Ġexcuse": 2731,
      "Ġtailor": 2732,
      "Ġschool": 2733,
      "Ġmantua": 2734,
      "Ġfruit": 2735,
      "'?": 2736,
      "fa": 2737,
      "ip": 2738,
      "more": 2739,
      "ped": 2740,
      "pic": 2741,
      "rate": 2742,
      "ug": 2743,
      "ued": 2744,
      "vish": 2745,
      "what": 2746,
      "woman": 2747,
      "ys": 2748,
      "Ġavo": 2749,
      "Ġsor": 2750,
      "Ġfinger": 2751,
      "Ġcli": 2752,
      "Ġcure": 2753,
      "llen": 2754,
      "Ġdri": 2755,
      "Ġdur": 2756,
      "Ġpains": 2757,
      "Ġpub": 2758,
      "Ġthunder": 2759,
      "Ġnose": 2760,
      "Ġwicked": 2761,
      "Ġhid": 2762,
      "Ġfors": 2763,
      "Ġemp": 2764,
      "Ġease": 2765,
      "Ġstar": 2766,
      "Ġreceive": 2767,
      "Ġdoor": 2768,
      "idings": 2769,
      "ursed": 2770,
      "Ġanger": 2771,
      "Ġshar": 2772,
      "lies": 2773,
      "Ġloath": 2774,
      "Ġspring": 2775,
      "Ġround": 2776,
      "Ġroot": 2777,
      "Ġunha": 2778,
      "Ġsheep": 2779,
      "Ġdust": 2780,
      "Ġdeceived": 2781,
      "Ġquit": 2782,
      "Ġblest": 2783,
      "Ġwhereof": 2784,
      "Ġfright": 2785,
      "Ġbroken": 2786,
      "Ġdisg": 2787,
      "Ġalthough": 2788,
      "Ġleaves": 2789,
      "cians": 2790,
      "Ġperceive": 2791,
      "Ġpercy": 2792,
      "Ġburied": 2793,
      "Ġflat": 2794,
      "Ġjove": 2795,
      "Ġplead": 2796,
      "Ġscr": 2797,
      "Ġrude": 2798,
      "Ġresign": 2799,
      "Ġcursed": 2800,
      "Ġsenate": 2801,
      "Ġtread": 2802,
      "Ġundert": 2803,
      "Ġimport": 2804,
      "Ġgift": 2805,
      "Ġpatri": 2806,
      "Ġwrongs": 2807,
      "Ġsits": 2808,
      "Ġadvance": 2809,
      "ealous": 2810,
      "Ġreasons": 2811,
      "Ġcondu": 2812,
      "Ġtempt": 2813,
      "Ġaffair": 2814,
      "acher": 2815,
      "Ġfiery": 2816,
      "Ġguilt": 2817,
      "Ġverona": 2818,
      "Ġknave": 2819,
      "Ġutter": 2820,
      "Ġcreature": 2821,
      "Ġoccasion": 2822,
      "Ġinnocent": 2823,
      "Ġchoice": 2824,
      "Ġleng": 2825,
      "Ġsafety": 2826,
      "Ġremedy": 2827,
      "Ġimprison": 2828,
      "Ġabhorson": 2829,
      "?'": 2830,
      "af": 2831,
      "bo": 2832,
      "cas": 2833,
      "iful": 2834,
      "mn": 2835,
      "na": 2836,
      "pin": 2837,
      "Ġted": 2838,
      "Ġtidings": 2839,
      "Ġship": 2840,
      "Ġwings": 2841,
      "inous": 2842,
      "Ġfury": 2843,
      "Ġlar": 2844,
      "Ġloud": 2845,
      "Ġdor": 2846,
      "Ġna": 2847,
      "Ġnumber": 2848,
      "Ġyonder": 2849,
      "Ġpress": 2850,
      "onoun": 2851,
      "Ġthrust": 2852,
      "anch": 2853,
      "Ġbelly": 2854,
      "Ġhie": 2855,
      "Ġinfect": 2856,
      "Ġinform": 2857,
      "ating": 2858,
      "leep": 2859,
      "rits": 2860,
      "Ġweeds": 2861,
      "Ġmeant": 2862,
      "Ġele": 2863,
      "Ġeag": 2864,
      "Ġwithdra": 2865,
      "Ġused": 2866,
      "Ġsto": 2867,
      "Ġstuff": 2868,
      "Ġstones": 2869,
      "Ġmops": 2870,
      "Ġloyal": 2871,
      "Ġfares": 2872,
      "Ġspare": 2873,
      "Ġshut": 2874,
      "Ġneg": 2875,
      "Ġcares": 2876,
      "Ġboat": 2877,
      "illius": 2878,
      "ctise": 2879,
      "Ġpronoun": 2880,
      "Ġoracle": 2881,
      "Ġdelay": 2882,
      "Ġproper": 2883,
      "Ġtaste": 2884,
      "Ġarg": 2885,
      "unning": 2886,
      "Ġhost": 2887,
      "Ġhollow": 2888,
      "elve": 2889,
      "Ġheav": 2890,
      "Ġcorn": 2891,
      "Ġrock": 2892,
      "ontent": 2893,
      "Ġpack": 2894,
      "Ġclaim": 2895,
      "Ġdesign": 2896,
      "Ġtwelve": 2897,
      "ughters": 2898,
      "Ġprayer": 2899,
      "Ġpleased": 2900,
      "Ġconsider": 2901,
      "Ġpreser": 2902,
      "Ġkeeps": 2903,
      "Ġplague": 2904,
      "Ġsenators": 2905,
      "Ġtreacher": 2906,
      "Ġbanished": 2907,
      "Ġdeposed": 2908,
      "Ġmaids": 2909,
      "Ġbark": 2910,
      "Ġdelight": 2911,
      "Ġwanton": 2912,
      "Ġsupper": 2913,
      "Ġdiscover": 2914,
      "Ġlangu": 2915,
      "Ġsimple": 2916,
      "hysic": 2917,
      "Ġwrite": 2918,
      "Ġapo": 2919,
      "Ġresolve": 2920,
      "Ġresolved": 2921,
      "Ġaccept": 2922,
      "Ġpractise": 2923,
      "Ġabsence": 2924,
      "Ġcheek": 2925,
      "Ġbrows": 2926,
      "Ġundone": 2927,
      "Ġempt": 2928,
      "Ġprinces": 2929,
      "Ġchristian": 2930,
      "Ġviolent": 2931,
      "Ġtrumpets": 2932,
      "Ġcomplain": 2933,
      "Ġfatal": 2934,
      "Ġseize": 2935,
      "Ġignorant": 2936,
      "Ġneighbour": 2937,
      "Ġgarden": 2938,
      "Ġauthority": 2939,
      "Ġcapitol": 2940,
      "Ġwrath": 2941,
      "Ġrotten": 2942,
      "Ġmamillius": 2943,
      "Ġcountenance": 2944,
      "Ġsorry": 2945,
      "Ġtedious": 2946,
      "Ġmopsa": 2947,
      "born": 2948,
      "cha": 2949,
      "eous": 2950,
      "ims": 2951,
      "kest": 2952,
      "nat": 2953,
      "oke": 2954,
      "ping": 2955,
      "pet": 2956,
      "sha": 2957,
      "scal": 2958,
      "whe": 2959,
      "Ġtee": 2960,
      "Ġtune": 2961,
      "held": 2962,
      "Ġaed": 2963,
      "Ġaught": 2964,
      "Ġsy": 2965,
      "Ġsens": 2966,
      "Ġwood": 2967,
      "Ġwine": 2968,
      "Ġwond": 2969,
      "Ġwot": 2970,
      "Ġwont": 2971,
      "Ġire": 2972,
      "Ġbla": 2973,
      "haps": 2974,
      "rey": 2975,
      "rehe": 2976,
      "Ġfer": 2977,
      "Ġcell": 2978,
      "Ġcries": 2979,
      "Ġcunning": 2980,
      "Ġopin": 2981,
      "Ġdet": 2982,
      "Ġnames": 2983,
      "hion": 2984,
      "Ġpin": 2985,
      "Ġpis": 2986,
      "Ġphysic": 2987,
      "esy": 2988,
      "Ġgain": 2989,
      "Ġthurs": 2990,
      "Ġwives": 2991,
      "Ġhail": 2992,
      "semb": 2993,
      "Ġhit": 2994,
      "cend": 2995,
      "ater": 2996,
      "rious": 2997,
      "utes": 2998,
      "ldom": 2999,
      "Ġweigh": 3000,
      "Ġweap": 3001,
      "Ġmere": 3002,
      "Ġmend": 3003,
      "Ġequ": 3004,
      "ited": 3005,
      "Ġstat": 3006,
      "Ġsteed": 3007,
      "Ġstock": 3008,
      "Ġasleep": 3009,
      "Ġreward": 3010,
      "Ġlimit": 3011,
      "Ġvouch": 3012,
      "Ġvantage": 3013,
      "Ġones": 3014,
      "Ġmotion": 3015,
      "run": 3016,
      "ards": 3017,
      "hant": 3018,
      "Ġfran": 3019,
      "Ġbond": 3020,
      "Ġjealous": 3021,
      "Ġdue": 3022,
      "Ġdew": 3023,
      "Ġamb": 3024,
      "Ġdeal": 3025,
      "Ġseeing": 3026,
      "Ġwhole": 3027,
      "Ġshouldst": 3028,
      "Ġball": 3029,
      "Ġbabe": 3030,
      "rows": 3031,
      "Ġoutward": 3032,
      "loved": 3033,
      "Ġlooking": 3034,
      "Ġgentlewoman": 3035,
      "Ġcorrupt": 3036,
      "Ġross": 3037,
      "Ġearn": 3038,
      "Ġpetition": 3039,
      "Ġpair": 3040,
      "Ġpawn": 3041,
      "Ġperhaps": 3042,
      "Ġado": 3043,
      "Ġrash": 3044,
      "Ġrascal": 3045,
      "Ġchide": 3046,
      "Ġchief": 3047,
      "Ġcontract": 3048,
      "Ġrepair": 3049,
      "Ġbegins": 3050,
      "Ġconspir": 3051,
      "Ġruin": 3052,
      "Ġcrowns": 3053,
      "ission": 3054,
      "Ġaccuse": 3055,
      "Ġfollows": 3056,
      "Ġfollowers": 3057,
      "Ġfarther": 3058,
      "Ġwoful": 3059,
      "Ġpassing": 3060,
      "Ġturns": 3061,
      "Ġdevise": 3062,
      "Ġfools": 3063,
      "Ġhumbly": 3064,
      "Ġadvise": 3065,
      "Ġdisposition": 3066,
      "Ġhanging": 3067,
      "Ġspirits": 3068,
      "Ġlamb": 3069,
      "Ġtemper": 3070,
      "Ġborne": 3071,
      "Ġdarest": 3072,
      "Ġmethought": 3073,
      "Ġsilver": 3074,
      "Ġinstruct": 3075,
      "Ġpossible": 3076,
      "Ġclear": 3077,
      "Ġnobles": 3078,
      "Ġforbear": 3079,
      "Ġgarments": 3080,
      "Ġexpress": 3081,
      "chance": 3082,
      "change": 3083,
      "Ġthrive": 3084,
      "Ġprepared": 3085,
      "Ġsighs": 3086,
      "Ġdreadful": 3087,
      "Ġsometimes": 3088,
      "Ġcolour": 3089,
      "Ġowe": 3090,
      "Ġprotect": 3091,
      "Ġdamned": 3092,
      "Ġstorm": 3093,
      "Ġconquer": 3094,
      "Ġenvious": 3095,
      "Ġcredit": 3096,
      "Ġbenefit": 3097,
      "Ġthroat": 3098,
      "Ġexcell": 3099,
      "Ġprevail": 3100,
      "Ġunhapp": 3101,
      "Ġaffairs": 3102,
      "Ġwithdraw": 3103,
      "Ġapollo": 3104,
      "Ġteeth": 3105,
      "Ġpisa": 3106,
      "Ġthursday": 3107,
      "aid": 3108,
      "act": 3109,
      "bb": 3110,
      "cate": 3111,
      "din": 3112,
      "eci": 3113,
      "ered": 3114,
      "ives": 3115,
      "nic": 3116,
      "ope": 3117,
      "ointed": 3118,
      "place": 3119,
      "rt": 3120,
      "sar": 3121,
      "yard": 3122,
      "yond": 3123,
      "Ġtort": 3124,
      "herit": 3125,
      "Ġamend": 3126,
      "Ġsan": 3127,
      "Ġwal": 3128,
      "Ġwol": 3129,
      "Ġwander": 3130,
      "Ġmiss": 3131,
      "Ġber": 3132,
      "Ġbas": 3133,
      "Ġband": 3134,
      "Ġbalt": 3135,
      "hasar": 3136,
      "Ġfro": 3137,
      "Ġflight": 3138,
      "Ġcens": 3139,
      "Ġled": 3140,
      "Ġport": 3141,
      "Ġpite": 3142,
      "Ġtop": 3143,
      "arch": 3144,
      "Ġgage": 3145,
      "Ġbew": 3146,
      "Ġbeheld": 3147,
      "Ġbeloved": 3148,
      "Ġbeyond": 3149,
      "lex": 3150,
      "eding": 3151,
      "utation": 3152,
      "Ġweight": 3153,
      "usion": 3154,
      "Ġely": 3155,
      "Ġhunt": 3156,
      "oots": 3157,
      "enture": 3158,
      "itude": 3159,
      "ease": 3160,
      "Ġstore": 3161,
      "Ġrede": 3162,
      "Ġrevol": 3163,
      "Ġlip": 3164,
      "Ġvan": 3165,
      "Ġseest": 3166,
      "lig": 3167,
      "Ġkingly": 3168,
      "Ġsup": 3169,
      "Ġlod": 3170,
      "Ġspend": 3171,
      "Ġspeci": 3172,
      "Ġgoodness": 3173,
      "ference": 3174,
      "Ġunnat": 3175,
      "ouses": 3176,
      "Ġconj": 3177,
      "Ġhereaf": 3178,
      "Ġprod": 3179,
      "Ġsway": 3180,
      "Ġenforce": 3181,
      "Ġbare": 3182,
      "Ġlean": 3183,
      "Ġlegs": 3184,
      "Ġdisd": 3185,
      "Ġdiss": 3186,
      "Ġbrook": 3187,
      "loy": 3188,
      "Ġexile": 3189,
      "Ġroom": 3190,
      "Ġpaper": 3191,
      "Ġperil": 3192,
      "Ġperish": 3193,
      "Ġperfect": 3194,
      "Ġperpet": 3195,
      "Ġprize": 3196,
      "Ġadm": 3197,
      "Ġfairly": 3198,
      "Ġparts": 3199,
      "Ġpartic": 3200,
      "Ġdares": 3201,
      "Ġdaughters": 3202,
      "Ġbearing": 3203,
      "Ġappare": 3204,
      "Ġaffect": 3205,
      "swain": 3206,
      "orses": 3207,
      "Ġaccus": 3208,
      "Ġaccess": 3209,
      "Ġseas": 3210,
      "Ġchair": 3211,
      "Ġcurst": 3212,
      "Ġhappiness": 3213,
      "Ġadvantage": 3214,
      "Ġcourtesy": 3215,
      "Ġcommanded": 3216,
      "Ġdenied": 3217,
      "Ġdeserves": 3218,
      "Ġdrum": 3219,
      "Ġgroan": 3220,
      "Ġuntime": 3221,
      "Ġcali": 3222,
      "Ġcalm": 3223,
      "Ġwedding": 3224,
      "Ġburthen": 3225,
      "Ġpenit": 3226,
      "Ġdestroy": 3227,
      "Ġhurt": 3228,
      "Ġpalace": 3229,
      "Ġsuspic": 3230,
      "Ġprotest": 3231,
      "Ġforsworn": 3232,
      "Ġsolemn": 3233,
      "Ġpleasant": 3234,
      "Ġcontinue": 3235,
      "Ġobedience": 3236,
      "Ġpunish": 3237,
      "Ġthreaten": 3238,
      "Ġseveral": 3239,
      "Ġcontrary": 3240,
      "Ġcircum": 3241,
      "Ġdinner": 3242,
      "Ġmiserable": 3243,
      "Ġpublic": 3244,
      "Ġsharp": 3245,
      "Ġconduct": 3246,
      "Ġboatswain": 3247,
      "Ġempty": 3248,
      "Ġopinion": 3249,
      "Ġsanct": 3250,
      "Ġbalthasar": 3251,
      "Ġpiteous": 3252,
      "Ġhereafter": 3253,
      "Ġuntimely": 3254,
      "bes": 3255,
      "clock": 3256,
      "eg": 3257,
      "eld": 3258,
      "iff": 3259,
      "iment": 3260,
      "ker": 3261,
      "oes": 3262,
      "ph": 3263,
      "pass": 3264,
      "sc": 3265,
      "sal": 3266,
      "urious": 3267,
      "Ġsink": 3268,
      "Ġscept": 3269,
      "ourish": 3270,
      "Ġmill": 3271,
      "Ġmaint": 3272,
      "ories": 3273,
      "Ġfas": 3274,
      "Ġfame": 3275,
      "Ġfee": 3276,
      "Ġfrench": 3277,
      "Ġflies": 3278,
      "Ġcri": 3279,
      "Ġcease": 3280,
      "Ġlin": 3281,
      "Ġdig": 3282,
      "Ġdign": 3283,
      "Ġdies": 3284,
      "Ġdag": 3285,
      "Ġnaked": 3286,
      "ene": 3287,
      "Ġpu": 3288,
      "Ġpure": 3289,
      "Ġpainted": 3290,
      "Ġtomb": 3291,
      "aries": 3292,
      "Ġheed": 3293,
      "Ġgate": 3294,
      "omenes": 3295,
      "Ġwits": 3296,
      "sequ": 3297,
      "uted": 3298,
      "Ġkin": 3299,
      "Ġhorses": 3300,
      "Ġits": 3301,
      "ead": 3302,
      "Ġstory": 3303,
      "ises": 3304,
      "isbury": 3305,
      "Ġrel": 3306,
      "Ġreve": 3307,
      "urance": 3308,
      "Ġsep": 3309,
      "amed": 3310,
      "Ġwhore": 3311,
      "Ġfail": 3312,
      "Ġfaces": 3313,
      "Ġspur": 3314,
      "Ġbot": 3315,
      "Ġcomb": 3316,
      "Ġcomest": 3317,
      "Ġjour": 3318,
      "Ġjew": 3319,
      "Ġduked": 3320,
      "Ġquench": 3321,
      "ilt": 3322,
      "outs": 3323,
      "Ġtap": 3324,
      "Ġtable": 3325,
      "Ġswall": 3326,
      "Ġtheirs": 3327,
      "oles": 3328,
      "pping": 3329,
      "umble": 3330,
      "Ġhopes": 3331,
      "othe": 3332,
      "ongs": 3333,
      "Ġbagot": 3334,
      "Ġabo": 3335,
      "ared": 3336,
      "Ġexpect": 3337,
      "cian": 3338,
      "Ġrose": 3339,
      "Ġadvers": 3340,
      "Ġadmit": 3341,
      "Ġcalled": 3342,
      "Ġstanding": 3343,
      "Ġraven": 3344,
      "Ġfolly": 3345,
      "Ġprey": 3346,
      "Ġways": 3347,
      "Ġapprehe": 3348,
      "Ġservices": 3349,
      "cape": 3350,
      "Ġcholer": 3351,
      "Ġcamest": 3352,
      "Ġaccom": 3353,
      "Ġaccord": 3354,
      "Ġends": 3355,
      "Ġendure": 3356,
      "Ġhatred": 3357,
      "Ġpurcha": 3358,
      "Ġcurses": 3359,
      "Ġtremb": 3360,
      "Ġtremble": 3361,
      "Ġneedful": 3362,
      "Ġnatural": 3363,
      "Ġfortunes": 3364,
      "Ġjoys": 3365,
      "Ġjoyful": 3366,
      "Ġremains": 3367,
      "Ġmisery": 3368,
      "Ġdevot": 3369,
      "verend": 3370,
      "Ġslow": 3371,
      "Ġmaiden": 3372,
      "Ġattempt": 3373,
      "Ġassurance": 3374,
      "Ġseeming": 3375,
      "Ġintent": 3376,
      "Ġmarket": 3377,
      "Ġwait": 3378,
      "Ġdiscontent": 3379,
      "Ġaffli": 3380,
      "Ġdrums": 3381,
      "Ġspoken": 3382,
      "Ġwounded": 3383,
      "Ġtitus": 3384,
      "Ġwaters": 3385,
      "Ġgrows": 3386,
      "Ġminister": 3387,
      "Ġprofan": 3388,
      "Ġinstrument": 3389,
      "Ġfourth": 3390,
      "Ġcleomenes": 3391,
      "Ġforgive": 3392,
      "Ġleads": 3393,
      "Ġvex": 3394,
      "Ġshortly": 3395,
      "Ġterror": 3396,
      "Ġpraise": 3397,
      "Ġhunts": 3398,
      "Ġoppos": 3399,
      "Ġprincess": 3400,
      "Ġrebell": 3401,
      "Ġapproach": 3402,
      "Ġcolours": 3403,
      "Ġtorment": 3404,
      "Ġhaply": 3405,
      "Ġgriev": 3406,
      "Ġgovernment": 3407,
      "Ġunknown": 3408,
      "Ġsalisbury": 3409,
      "Ġcounterfeit": 3410,
      "hearted": 3411,
      "Ġrenowned": 3412,
      "Ġbodies": 3413,
      "Ġremembrance": 3414,
      "Ġdurst": 3415,
      "Ġemploy": 3416,
      "Ġundertake": 3417,
      "Ġlarge": 3418,
      "Ġlanguage": 3419,
      "Ġferdin": 3420,
      "Ġexcellent": 3421,
      "Ġredeem": 3422,
      "Ġunnatural": 3423,
      "Ġapparel": 3424,
      "Ġcaliban": 3425,
      "Ġsuspicion": 3426,
      "Ġdukedom": 3427,
      "Ġswallow": 3428,
      "Ġferdinand": 3429,
      "?--": 3430,
      "aff": 3431,
      "arent": 3432,
      "eves": 3433,
      "eved": 3434,
      "gers": 3435,
      "lar": 3436,
      "leness": 3437,
      "pl": 3438,
      "ple": 3439,
      "roud": 3440,
      "same": 3441,
      "uce": 3442,
      "uary": 3443,
      "val": 3444,
      "vours": 3445,
      "wise": 3446,
      "water": 3447,
      "Ġtro": 3448,
      "Ġtest": 3449,
      "hest": 3450,
      "Ġable": 3451,
      "Ġaim": 3452,
      "Ġalike": 3453,
      "Ġsins": 3454,
      "Ġsouth": 3455,
      "Ġwr": 3456,
      "Ġmile": 3457,
      "Ġbury": 3458,
      "rease": 3459,
      "ination": 3460,
      "orth": 3461,
      "Ġfle": 3462,
      "Ġfla": 3463,
      "Ġdise": 3464,
      "Ġnought": 3465,
      "ences": 3466,
      "Ġpowers": 3467,
      "think": 3468,
      "strous": 3469,
      "Ġhaz": 3470,
      "Ġing": 3471,
      "Ġinqu": 3472,
      "atic": 3473,
      "ric": 3474,
      "rian": 3475,
      "Ġforced": 3476,
      "Ġisle": 3477,
      "Ġisland": 3478,
      "Ġweather": 3479,
      "Ġwept": 3480,
      "Ġmelt": 3481,
      "Ġeast": 3482,
      "Ġhouses": 3483,
      "eath": 3484,
      "Ġthief": 3485,
      "Ġstol": 3486,
      "Ġstrew": 3487,
      "Ġstamp": 3488,
      "Ġrealm": 3489,
      "Ġreverend": 3490,
      "Ġlift": 3491,
      "Ġvar": 3492,
      "cket": 3493,
      "idence": 3494,
      "Ġshape": 3495,
      "Ġwillough": 3496,
      "very": 3497,
      "Ġspite": 3498,
      "Ġwhisper": 3499,
      "ellig": 3500,
      "Ġshun": 3501,
      "Ġboar": 3502,
      "Ġring": 3503,
      "Ġknight": 3504,
      "Ġknife": 3505,
      "Ġuna": 3506,
      "Ġunl": 3507,
      "Ġdebt": 3508,
      "ants": 3509,
      "Ġqual": 3510,
      "Ġmanners": 3511,
      "Ġtakes": 3512,
      "Ġswell": 3513,
      "Ġblock": 3514,
      "olute": 3515,
      "Ġarch": 3516,
      "ument": 3517,
      "Ġworn": 3518,
      "Ġenmity": 3519,
      "Ġmuster": 3520,
      "Ġglorious": 3521,
      "Ġfathers": 3522,
      "Ġbrings": 3523,
      "Ġalter": 3524,
      "Ġserves": 3525,
      "cise": 3526,
      "Ġrogue": 3527,
      "Ġdesires": 3528,
      "Ġperj": 3529,
      "Ġfriendly": 3530,
      "Ġadver": 3531,
      "Ġmerri": 3532,
      "Ġrain": 3533,
      "Ġraise": 3534,
      "Ġpref": 3535,
      "tled": 3536,
      "Ġscope": 3537,
      "Ġscene": 3538,
      "Ġcock": 3539,
      "ression": 3540,
      "Ġbegun": 3541,
      "Ġrule": 3542,
      "Ġclam": 3543,
      "ctions": 3544,
      "twill": 3545,
      "Ġtrick": 3546,
      "Ġputs": 3547,
      "Ġresc": 3548,
      "Ġcompan": 3549,
      "Ġcompass": 3550,
      "Ġbrain": 3551,
      "Ġslept": 3552,
      "Ġaccursed": 3553,
      "Ġkindly": 3554,
      "Ġsmooth": 3555,
      "Ġsmiles": 3556,
      "Ġfinds": 3557,
      "Ġimposs": 3558,
      "Ġgiving": 3559,
      "Ġpassion": 3560,
      "Ġpassage": 3561,
      "Ġarmour": 3562,
      "Ġprosperous": 3563,
      "Ġslay": 3564,
      "Ġanti": 3565,
      "ney": 3566,
      "Ġcharged": 3567,
      "Ġhuman": 3568,
      "Ġhateful": 3569,
      "Ġsends": 3570,
      "Ġinstant": 3571,
      "uteous": 3572,
      "Ġtrade": 3573,
      "Ġwants": 3574,
      "Ġrevenged": 3575,
      "Ġcontented": 3576,
      "Ġwinds": 3577,
      "Ġfreely": 3578,
      "Ġincrease": 3579,
      "Ġmonstrous": 3580,
      "noon": 3581,
      "Ġgranted": 3582,
      "Ġhardly": 3583,
      "Ġresolution": 3584,
      "Ġsurrey": 3585,
      "Ġvenom": 3586,
      "Ġterms": 3587,
      "Ġvolsce": 3588,
      "Ġsky": 3589,
      "Ġabsent": 3590,
      "Ġdrops": 3591,
      "Ġthrice": 3592,
      "Ġrespected": 3593,
      "Ġprivile": 3594,
      "Ġframe": 3595,
      "Ġurge": 3596,
      "Ġabhor": 3597,
      "Ġsuspect": 3598,
      "Ġforswear": 3599,
      "Ġfamous": 3600,
      "Ġbelow": 3601,
      "Ġodds": 3602,
      "Ġlusty": 3603,
      "Ġacquaint": 3604,
      "Ġmourn": 3605,
      "Ġnaples": 3606,
      "Ġstabb": 3607,
      "Ġdegree": 3608,
      "Ġcommitted": 3609,
      "shire": 3610,
      "Ġwreck": 3611,
      "Ġbehalf": 3612,
      "Ġavoid": 3613,
      "Ġdorcas": 3614,
      "Ġtreacherous": 3615,
      "Ġearnest": 3616,
      "Ġunhappy": 3617,
      "Ġdisdain": 3618,
      "Ġperpetual": 3619,
      "Ġparticular": 3620,
      "Ġsceptre": 3621,
      "Ġdagger": 3622,
      "olesome": 3623,
      "Ġwilloughby": 3624,
      "con": 3625,
      "des": 3626,
      "fret": 3627,
      "gic": 3628,
      "god": 3629,
      "iate": 3630,
      "just": 3631,
      "kin": 3632,
      "lam": 3633,
      "mer": 3634,
      "nal": 3635,
      "pri": 3636,
      "pit": 3637,
      "zz": 3638,
      "Ġtame": 3639,
      "Ġtide": 3640,
      "Ġtush": 3641,
      "Ġsqu": 3642,
      "Ġsalt": 3643,
      "Ġsooth": 3644,
      "Ġwort": 3645,
      "Ġiron": 3646,
      "Ġmor": 3647,
      "Ġmat": 3648,
      "Ġbill": 3649,
      "Ġbade": 3650,
      "Ġboots": 3651,
      "ints": 3652,
      "Ġfig": 3653,
      "Ġfurn": 3654,
      "Ġchat": 3655,
      "Ġcatch": 3656,
      "Ġoak": 3657,
      "Ġlent": 3658,
      "Ġlun": 3659,
      "Ġlark": 3660,
      "Ġdow": 3661,
      "Ġdress": 3662,
      "Ġdying": 3663,
      "Ġyond": 3664,
      "ency": 3665,
      "Ġphi": 3666,
      "Ġpurse": 3667,
      "Ġhera": 3668,
      "Ġthorn": 3669,
      "ances": 3670,
      "omans": 3671,
      "Ġbeard": 3672,
      "Ġbethink": 3673,
      "Ġwealth": 3674,
      "Ġsore": 3675,
      "Ġlion": 3676,
      "Ġlimb": 3677,
      "ades": 3678,
      "Ġvows": 3679,
      "rain": 3680,
      "raced": 3681,
      "Ġwilling": 3682,
      "Ġwillingly": 3683,
      "liament": 3684,
      "andal": 3685,
      "que": 3686,
      "Ġspit": 3687,
      "Ġwhip": 3688,
      "ellow": 3689,
      "Ġromans": 3690,
      "Ġknot": 3691,
      "Ġung": 3692,
      "Ġsirs": 3693,
      "Ġmanif": 3694,
      "Ġsaying": 3695,
      "Ġtaught": 3696,
      "Ġlovely": 3697,
      "ortion": 3698,
      "Ġwarlike": 3699,
      "unts": 3700,
      "Ġshoulder": 3701,
      "Ġdischar": 3702,
      "Ġdisper": 3703,
      "Ġhasty": 3704,
      "Ġgently": 3705,
      "Ġalons": 3706,
      "Ġtells": 3707,
      "Ġcorre": 3708,
      "Ġroar": 3709,
      "Ġrosal": 3710,
      "Ġthinking": 3711,
      "Ġdesert": 3712,
      "Ġperforce": 3713,
      "Ġbuild": 3714,
      "Ġfears": 3715,
      "ians": 3716,
      "Ġadrian": 3717,
      "Ġjoint": 3718,
      "Ġgreatest": 3719,
      "Ġrap": 3720,
      "Ġraised": 3721,
      "ages": 3722,
      "aking": 3723,
      "Ġpartly": 3724,
      "Ġdaily": 3725,
      "Ġcommission": 3726,
      "Ġapparent": 3727,
      "Ġcontempt": 3728,
      "Ġrepeal": 3729,
      "Ġbegu": 3730,
      "Ġruth": 3731,
      "Ġgaoler": 3732,
      "Ġpeers": 3733,
      "Ġhencefor": 3734,
      "Ġsicilia": 3735,
      "Ġmistrust": 3736,
      "Ġbraw": 3737,
      "Ġgrieve": 3738,
      "Ġprovo": 3739,
      "Ġaccused": 3740,
      "Ġwitch": 3741,
      "Ġseason": 3742,
      "Ġchast": 3743,
      "Ġholds": 3744,
      "Ġforthwith": 3745,
      "Ġafternoon": 3746,
      "Ġpomfret": 3747,
      "Ġparliament": 3748,
      "Ġhappily": 3749,
      "Ġsoundly": 3750,
      "Ġadvice": 3751,
      "Ġhanged": 3752,
      "Ġassured": 3753,
      "Ġintellig": 3754,
      "ified": 3755,
      "Ġcraft": 3756,
      "Ġsupposed": 3757,
      "Ġstreets": 3758,
      "Ġafford": 3759,
      "Ġgroans": 3760,
      "Ġfiend": 3761,
      "Ġrecom": 3762,
      "Ġrecord": 3763,
      "Ġsilent": 3764,
      "Ġinfer": 3765,
      "Ġprofit": 3766,
      "Ġinstruments": 3767,
      "Ġbird": 3768,
      "Ġnobly": 3769,
      "Ġfeeling": 3770,
      "Ġplainly": 3771,
      "Ġveins": 3772,
      "Ġsingle": 3773,
      "Ġwaste": 3774,
      "Ġpieces": 3775,
      "Ġgarland": 3776,
      "Ġregard": 3777,
      "Ġestate": 3778,
      "Ġurged": 3779,
      "Ġaffections": 3780,
      "Ġamongst": 3781,
      "Ġgrandam": 3782,
      "Ġoffended": 3783,
      "Ġconceit": 3784,
      "Ġvault": 3785,
      "Ġconstant": 3786,
      "Ġtarry": 3787,
      "Ġimagine": 3788,
      "Ġelder": 3789,
      "Ġstudy": 3790,
      "Ġfairer": 3791,
      "Ġdeceit": 3792,
      "Ġamazed": 3793,
      "Ġarrived": 3794,
      "Ġimprisonment": 3795,
      "Ġneglect": 3796,
      "Ġpronounce": 3797,
      "Ġaedile": 3798,
      "Ġwondrous": 3799,
      "Ġireland": 3800,
      "Ġequal": 3801,
      "Ġprotector": 3802,
      "Ġspecial": 3803,
      "Ġcircumst": 3804,
      "Ġsanctuary": 3805,
      "Ġmaintain": 3806,
      "Ġaboard": 3807,
      "Ġaccording": 3808,
      "Ġhuntsman": 3809,
      "Ġgrievous": 3810,
      "Ġwrought": 3811,
      "Ġworthi": 3812,
      "Ġherald": 3813,
      "Ġalonso": 3814,
      "Ġrosaline": 3815,
      ";--": 3816,
      "afe": 3817,
      "but": 3818,
      "do": 3819,
      "eat": 3820,
      "father": 3821,
      "fall": 3822,
      "gar": 3823,
      "gri": 3824,
      "gro": 3825,
      "ho": 3826,
      "lis": 3827,
      "lanch": 3828,
      "min": 3829,
      "mory": 3830,
      "oved": 3831,
      "po": 3832,
      "thi": 3833,
      "tain": 3834,
      "ties": 3835,
      "time": 3836,
      "upt": 3837,
      "vior": 3838,
      "we": 3839,
      "zwater": 3840,
      "Ġz": 3841,
      "Ġtur": 3842,
      "Ġtres": 3843,
      "Ġtask": 3844,
      "hen": 3845,
      "Ġapt": 3846,
      "Ġachi": 3847,
      "Ġaunt": 3848,
      "Ġsire": 3849,
      "Ġwing": 3850,
      "Ġwake": 3851,
      "Ġwrink": 3852,
      "iny": 3853,
      "Ġfood": 3854,
      "Ġfun": 3855,
      "Ġfeet": 3856,
      "Ġcat": 3857,
      "Ġcere": 3858,
      "Ġnea": 3859,
      "Ġyoke": 3860,
      "enant": 3861,
      "enna": 3862,
      "Ġpound": 3863,
      "esar": 3864,
      "essel": 3865,
      "onci": 3866,
      "sts": 3867,
      "vet": 3868,
      "Ġwide": 3869,
      "Ġhabit": 3870,
      "semble": 3871,
      "ative": 3872,
      "eder": 3873,
      "etite": 3874,
      "Ġforfeit": 3875,
      "utenant": 3876,
      "irm": 3877,
      "uses": 3878,
      "Ġmelanch": 3879,
      "Ġevent": 3880,
      "Ġhorn": 3881,
      "keley": 3882,
      "ourse": 3883,
      "Ġsting": 3884,
      "Ġstro": 3885,
      "Ġstout": 3886,
      "Ġstroke": 3887,
      "Ġstret": 3888,
      "Ġrece": 3889,
      "Ġreck": 3890,
      "Ġrejo": 3891,
      "aded": 3892,
      "Ġvessel": 3893,
      "rac": 3894,
      "Ġdogs": 3895,
      "ested": 3896,
      "ruction": 3897,
      "Ġsell": 3898,
      "Ġsees": 3899,
      "Ġseldom": 3900,
      "aints": 3901,
      "Ġwholesome": 3902,
      "Ġalliance": 3903,
      "Ġsue": 3904,
      "Ġsuck": 3905,
      "Ġspl": 3906,
      "Ġsple": 3907,
      "Ġride": 3908,
      "Ġcaught": 3909,
      "Ġcaesar": 3910,
      "Ġfroward": 3911,
      "Ġbore": 3912,
      "Ġjack": 3913,
      "Ġunst": 3914,
      "Ġunse": 3915,
      "Ġunjust": 3916,
      "Ġmult": 3917,
      "Ġdeb": 3918,
      "ulf": 3919,
      "ulate": 3920,
      "Ġconference": 3921,
      "arts": 3922,
      "Ġtall": 3923,
      "Ġblot": 3924,
      "Ġpot": 3925,
      "Ġposter": 3926,
      "Ġpoints": 3927,
      "orted": 3928,
      "ote": 3929,
      "Ġago": 3930,
      "Ġagree": 3931,
      "Ġgraves": 3932,
      "ement": 3933,
      "Ġabide": 3934,
      "Ġexer": 3935,
      "Ġexcept": 3936,
      "Ġexchange": 3937,
      "Ġserved": 3938,
      "Ġbred": 3939,
      "Ġdescend": 3940,
      "Ġtwain": 3941,
      "Ġflow": 3942,
      "Ġflood": 3943,
      "Ġbetray": 3944,
      "Ġbetimes": 3945,
      "Ġmerit": 3946,
      "Ġsecure": 3947,
      "Ġrare": 3948,
      "Ġrail": 3949,
      "Ġnewly": 3950,
      "Ġparting": 3951,
      "Ġscandal": 3952,
      "Ġcost": 3953,
      "Ġcommons": 3954,
      "Ġvienna": 3955,
      "Ġappeal": 3956,
      "Ġappointed": 3957,
      "Ġappetite": 3958,
      "Ġcontro": 3959,
      "Ġbegan": 3960,
      "Ġrust": 3961,
      "Ġruled": 3962,
      "ullus": 3963,
      "Ġsets": 3964,
      "Ġlieutenant": 3965,
      "Ġcamb": 3966,
      "Ġhousehold": 3967,
      "Ġresist": 3968,
      "Ġcomplex": 3969,
      "Ġbrace": 3970,
      "Ġyounger": 3971,
      "Ġaccident": 3972,
      "forced": 3973,
      "Ġhelm": 3974,
      "Ġsmo": 3975,
      "Ġsmell": 3976,
      "Ġchase": 3977,
      "Ġcharac": 3978,
      "Ġrights": 3979,
      "Ġcurrent": 3980,
      "Ġpowerful": 3981,
      "Ġtreasure": 3982,
      "Ġnative": 3983,
      "Ġboys": 3984,
      "Ġremove": 3985,
      "Ġfeather": 3986,
      "Ġservants": 3987,
      "Ġdif": 3988,
      "Ġanointed": 3989,
      "Ġmeeting": 3990,
      "Ġstrive": 3991,
      "Ġweeps": 3992,
      "Ġdepend": 3993,
      "Ġlesser": 3994,
      "Ġretire": 3995,
      "Ġgriefs": 3996,
      "Ġfalsehood": 3997,
      "Ġbarren": 3998,
      "Ġfaithful": 3999,
      "Ġdisple": 4000,
      "Ġvirtues": 4001,
      "Ġassure": 4002,
      "Ġslaves": 4003,
      "Ġcarlis": 4004,
      "Ġsovereignty": 4005,
      "Ġsupply": 4006,
      "Ġsuppose": 4007,
      "Ġyielded": 4008,
      "Ġfitzwater": 4009,
      "Ġoaths": 4010,
      "Ġgroom": 4011,
      "Ġsurely": 4012,
      "Ġfires": 4013,
      "Ġreconci": 4014,
      "Ġheirs": 4015,
      "Ġbeholding": 4016,
      "Ġexton": 4017,
      "Ġvel": 4018,
      "Ġarise": 4019,
      "Ġproportion": 4020,
      "Ġbreathed": 4021,
      "Ġprett": 4022,
      "Ġvirgin": 4023,
      "iety": 4024,
      "Ġimage": 4025,
      "Ġweakness": 4026,
      "Ġabsolute": 4027,
      "Ġsickness": 4028,
      "Ġregal": 4029,
      "Ġmouths": 4030,
      "Ġbooks": 4031,
      "Ġhung": 4032,
      "Ġsatisfy": 4033,
      "Ġknaves": 4034,
      "Ġblem": 4035,
      "Ġbridegro": 4036,
      "Ġpitch": 4037,
      "Ġdefence": 4038,
      "Ġshield": 4039,
      "Ġwaking": 4040,
      "Ġtempest": 4041,
      "Ġbeasts": 4042,
      "Ġtrumpet": 4043,
      "Ġrefuse": 4044,
      "soever": 4045,
      "Ġunkind": 4046,
      "Ġvaug": 4047,
      "Ġunfold": 4048,
      "Ġobedient": 4049,
      "Ġentertainment": 4050,
      "Ġdismiss": 4051,
      "Ġpersuade": 4052,
      "Ġdetermined": 4053,
      "Ġsnow": 4054,
      "Ġfairest": 4055,
      "Ġfancy": 4056,
      "Ġpierce": 4057,
      "Ġsubstit": 4058,
      "Ġmilan": 4059,
      "Ġpilgri": 4060,
      "Ġholp": 4061,
      "Ġtyranny": 4062,
      "faced": 4063,
      "Ġdisgrace": 4064,
      "Ġflatte": 4065,
      "Ġpatricians": 4066,
      "Ġlength": 4067,
      "Ġstopp": 4068,
      "Ġvouchs": 4069,
      "Ġballad": 4070,
      "Ġconspirator": 4071,
      "Ġberkeley": 4072,
      "Ġprodig": 4073,
      "Ġpenitent": 4074,
      "Ġfashion": 4075,
      "Ġdignity": 4076,
      "Ġreverence": 4077,
      "Ġjourney": 4078,
      "Ġaccomp": 4079,
      "Ġpurchase": 4080,
      "Ġdevotion": 4081,
      "Ġrebellion": 4082,
      "Ġimpossible": 4083,
      "Ġcerem": 4084,
      "Ġmelancholy": 4085,
      "Ġcarlisle": 4086,
      "Ġbridegroom": 4087,
      "Ġvaughan": 4088,
      ".--": 4089,
      "aly": 4090,
      "athing": 4091,
      "bation": 4092,
      "cary": 4093,
      "cceed": 4094,
      "ded": 4095,
      "dam": 4096,
      "ders": 4097,
      "gling": 4098,
      "ib": 4099,
      "ix": 4100,
      "iam": 4101,
      "mong": 4102,
      "maid": 4103,
      "nes": 4104,
      "pardon": 4105,
      "rs": 4106,
      "rings": 4107,
      "sues": 4108,
      "teen": 4109,
      "tles": 4110,
      "uries": 4111,
      "ws": 4112,
      "whi": 4113,
      "wit": 4114,
      "weal": 4115,
      "wife": 4116,
      "xe": 4117,
      "Ġtun": 4118,
      "Ġtullus": 4119,
      "Ġaxe": 4120,
      "Ġsed": 4121,
      "Ġsaints": 4122,
      "Ġward": 4123,
      "Ġwink": 4124,
      "Ġid": 4125,
      "Ġmood": 4126,
      "Ġbay": 4127,
      "Ġbrit": 4128,
      "inct": 4129,
      "Ġfel": 4130,
      "Ġfish": 4131,
      "Ġfier": 4132,
      "Ġfreed": 4133,
      "Ġcrow": 4134,
      "Ġciv": 4135,
      "Ġope": 4136,
      "Ġlat": 4137,
      "Ġlur": 4138,
      "lling": 4139,
      "Ġdim": 4140,
      "Ġnest": 4141,
      "Ġnim": 4142,
      "Ġyon": 4143,
      "Ġpee": 4144,
      "Ġtoad": 4145,
      "Ġtoil": 4146,
      "Ġheat": 4147,
      "onst": 4148,
      "onation": 4149,
      "stery": 4150,
      "Ġthrong": 4151,
      "Ġthread": 4152,
      "omach": 4153,
      "Ġwipe": 4154,
      "Ġbere": 4155,
      "Ġbeam": 4156,
      "sell": 4157,
      "Ġmystery": 4158,
      "Ġhill": 4159,
      "Ġinfection": 4160,
      "lets": 4161,
      "Ġkit": 4162,
      "ushes": 4163,
      "Ġmemory": 4164,
      "Ġhor": 4165,
      "Ġnotice": 4166,
      "Ġitaly": 4167,
      "Ġthieves": 4168,
      "Ġstick": 4169,
      "Ġstern": 4170,
      "Ġstumble": 4171,
      "Ġreap": 4172,
      "Ġliken": 4173,
      "Ġdove": 4174,
      "Ġwilliam": 4175,
      "aming": 4176,
      "lier": 4177,
      "Ġsuper": 4178,
      "Ġsullen": 4179,
      "Ġsucceed": 4180,
      "Ġlover": 4181,
      "Ġlovest": 4182,
      "Ġfact": 4183,
      "Ġfawn": 4184,
      "Ġspy": 4185,
      "Ġspect": 4186,
      "Ġspread": 4187,
      "Ġshroud": 4188,
      "Ġripe": 4189,
      "Ġrans": 4190,
      "Ġjot": 4191,
      "illy": 4192,
      "illing": 4193,
      "Ġune": 4194,
      "Ġthereby": 4195,
      "Ġdukes": 4196,
      "Ġmarin": 4197,
      "Ġmarks": 4198,
      "Ġdeck": 4199,
      "ulch": 4200,
      "Ġconceive": 4201,
      "seless": 4202,
      "Ġmanage": 4203,
      "Ġlets": 4204,
      "Ġdearest": 4205,
      "Ġswain": 4206,
      "icles": 4207,
      "Ġknowing": 4208,
      "Ġwarri": 4209,
      "Ġwhereto": 4210,
      "othes": 4211,
      "iel": 4212,
      "Ġlikely": 4213,
      "Ġbabes": 4214,
      "Ġsomewhat": 4215,
      "Ġedge": 4216,
      "Ġtooth": 4217,
      "Ġdeaths": 4218,
      "Ġdisgu": 4219,
      "rents": 4220,
      "Ġbran": 4221,
      "Ġabused": 4222,
      "Ġexamp": 4223,
      "Ġheartily": 4224,
      "Ġleague": 4225,
      "cies": 4226,
      "Ġpause": 4227,
      "bert": 4228,
      "Ġdescent": 4229,
      "Ġprick": 4230,
      "Ġgreatness": 4231,
      "Ġsweeter": 4232,
      "Ġheavenly": 4233,
      "Ġcounc": 4234,
      "Ġscold": 4235,
      "Ġharsh": 4236,
      "Ġcoff": 4237,
      "Ġrepose": 4238,
      "Ġbeget": 4239,
      "Ġstays": 4240,
      "Ġclothes": 4241,
      "Ġtrans": 4242,
      "Ġtransp": 4243,
      "Ġgaze": 4244,
      "Ġpeer": 4245,
      "Ġyoungest": 4246,
      "Ġplaces": 4247,
      "Ġdearly": 4248,
      "Ġhated": 4249,
      "Ġsubd": 4250,
      "Ġsubtle": 4251,
      "Ġchaste": 4252,
      "Ġcherish": 4253,
      "Ġholding": 4254,
      "Ġconfirm": 4255,
      "Ġimpat": 4256,
      "Ġpomp": 4257,
      "Ġminds": 4258,
      "Ġremorse": 4259,
      "Ġremoved": 4260,
      "Ġmischance": 4261,
      "Ġthirty": 4262,
      "Ġuncles": 4263,
      "Ġobject": 4264,
      "Ġsorrows": 4265,
      "Ġpolicy": 4266,
      "Ġadventure": 4267,
      "Ġsleeping": 4268,
      "Ġhangs": 4269,
      "osing": 4270,
      "Ġcareless": 4271,
      "Ġcountrymen": 4272,
      "Ġwanting": 4273,
      "Ġcrack": 4274,
      "Ġcraves": 4275,
      "Ġstranger": 4276,
      "Ġyields": 4277,
      "Ġbeaut": 4278,
      "Ġbeauteous": 4279,
      "Ġwindows": 4280,
      "Ġgrat": 4281,
      "Ġincen": 4282,
      "Ġcommonweal": 4283,
      "Ġmonument": 4284,
      "Ġsuitor": 4285,
      "Ġsuitors": 4286,
      "Ġsights": 4287,
      "Ġfix": 4288,
      "Ġfift": 4289,
      "Ġmirth": 4290,
      "Ġsuffic": 4291,
      "Ġtrusty": 4292,
      "Ġproclam": 4293,
      "Ġgrowing": 4294,
      "Ġboldly": 4295,
      "Ġwriting": 4296,
      "Ġinfant": 4297,
      "Ġvisage": 4298,
      "Ġwooing": 4299,
      "Ġinstruction": 4300,
      "Ġstronger": 4301,
      "Ġexecute": 4302,
      "Ġexecuted": 4303,
      "Ġfourteen": 4304,
      "Ġforeign": 4305,
      "Ġburst": 4306,
      "Ġdirection": 4307,
      "Ġcheerly": 4308,
      "Ġselfsame": 4309,
      "Ġredress": 4310,
      "Ġestim": 4311,
      "Ġfrowns": 4312,
      "Ġemilia": 4313,
      "Ġfrail": 4314,
      "Ġpitiful": 4315,
      "Ġgallant": 4316,
      "Ġtriumphant": 4317,
      "banished": 4318,
      "Ġwakes": 4319,
      "Ġoccup": 4320,
      "Ġexecutioner": 4321,
      "Ġinnoc": 4322,
      "Ġextremity": 4323,
      "Ġdecl": 4324,
      "Ġconceal": 4325,
      "Ġpleasing": 4326,
      "Ġignorance": 4327,
      "Ġneighbours": 4328,
      "Ġslip": 4329,
      "Ġbigger": 4330,
      "Ġstephen": 4331,
      "Ġmodest": 4332,
      "Ġmodesty": 4333,
      "Ġshadows": 4334,
      "Ġdismal": 4335,
      "Ġdetermine": 4336,
      "eeming": 4337,
      "Ġwestmore": 4338,
      "Ġamaz": 4339,
      "Ġwager": 4340,
      "Ġshrewd": 4341,
      "Ġnecessity": 4342,
      "Ġprophet": 4343,
      "Ġscroop": 4344,
      "Ġeleven": 4345,
      "Ġeagle": 4346,
      "Ġsteeds": 4347,
      "Ġtorture": 4348,
      "Ġsepulch": 4349,
      "Ġjewel": 4350,
      "Ġtapster": 4351,
      "othecary": 4352,
      "Ġadversaries": 4353,
      "Ġapprehend": 4354,
      "Ġtrembling": 4355,
      "Ġopposite": 4356,
      "Ġprivilege": 4357,
      "Ġdowry": 4358,
      "Ġtrespass": 4359,
      "Ġstrokes": 4360,
      "Ġexercise": 4361,
      "Ġpilgrim": 4362,
      "Ġflatterer": 4363,
      "Ġvouchsafe": 4364,
      "Ġfierce": 4365,
      "Ġcivil": 4366,
      "Ġwestmoreland": 4367,
      "bour": 4368,
      "bble": 4369,
      "bles": 4370,
      "bishop": 4371,
      "cor": 4372,
      "car": 4373,
      "cour": 4374,
      "cis": 4375,
      "fellow": 4376,
      "gy": 4377,
      "gher": 4378,
      "good": 4379,
      "gled": 4380,
      "hrew": 4381,
      "iven": 4382,
      "iving": 4383,
      "low": 4384,
      "lph": 4385,
      "my": 4386,
      "mas": 4387,
      "mest": 4388,
      "master": 4389,
      "nken": 4390,
      "ola": 4391,
      "rat": 4392,
      "roop": 4393,
      "roof": 4394,
      "some": 4395,
      "sire": 4396,
      "that": 4397,
      "tom": 4398,
      "vive": 4399,
      "war": 4400,
      "Ġeter": 4401,
      "Ġtal": 4402,
      "Ġtig": 4403,
      "Ġtren": 4404,
      "Ġtouc": 4405,
      "Ġav": 4406,
      "Ġale": 4407,
      "Ġaud": 4408,
      "Ġsings": 4409,
      "Ġsought": 4410,
      "Ġwore": 4411,
      "Ġmain": 4412,
      "Ġbent": 4413,
      "Ġborrow": 4414,
      "Ġbalm": 4415,
      "rem": 4416,
      "rets": 4417,
      "nday": 4418,
      "orough": 4419,
      "Ġfard": 4420,
      "Ġfant": 4421,
      "Ġcy": 4422,
      "Ġcou": 4423,
      "Ġcop": 4424,
      "Ġoh": 4425,
      "Ġomit": 4426,
      "erns": 4427,
      "Ġlance": 4428,
      "Ġlower": 4429,
      "Ġlying": 4430,
      "lled": 4431,
      "Ġdion": 4432,
      "Ġdate": 4433,
      "Ġdash": 4434,
      "Ġdroop": 4435,
      "Ġnet": 4436,
      "Ġnice": 4437,
      "Ġnumb": 4438,
      "Ġnupt": 4439,
      "hic": 4440,
      "Ġpi": 4441,
      "Ġpear": 4442,
      "Ġpick": 4443,
      "Ġpaint": 4444,
      "Ġtomorrow": 4445,
      "esu": 4446,
      "Ġheels": 4447,
      "oned": 4448,
      "Ġgid": 4449,
      "ingers": 4450,
      "stle": 4451,
      "Ġthin": 4452,
      "Ġthumb": 4453,
      "Ġhare": 4454,
      "Ġhaught": 4455,
      "sey": 4456,
      "Ġhire": 4457,
      "Ġhist": 4458,
      "owl": 4459,
      "Ġink": 4460,
      "Ġinherit": 4461,
      "rif": 4462,
      "rible": 4463,
      "Ġforty": 4464,
      "Ġwears": 4465,
      "Ġhom": 4466,
      "Ġhoney": 4467,
      "Ġnoted": 4468,
      "oops": 4469,
      "itiff": 4470,
      "Ġthick": 4471,
      "Ġstale": 4472,
      "Ġstaff": 4473,
      "Ġstomach": 4474,
      "ision": 4475,
      "Ġlicio": 4476,
      "Ġliking": 4477,
      "Ġlivery": 4478,
      "Ġvent": 4479,
      "rand": 4480,
      "raid": 4481,
      "rage": 4482,
      "raham": 4483,
      "Ġdozen": 4484,
      "Ġwhate": 4485,
      "Ġmoves": 4486,
      "Ġanch": 4487,
      "Ġshare": 4488,
      "Ġshapes": 4489,
      "Ġwills": 4490,
      "lied": 4491,
      "Ġhers": 4492,
      "thern": 4493,
      "Ġload": 4494,
      "Ġlovers": 4495,
      "Ġshallow": 4496,
      "Ġfavours": 4497,
      "Ġourself": 4498,
      "Ġspot": 4499,
      "Ġwhit": 4500,
      "haniel": 4501,
      "Ġshru": 4502,
      "Ġshook": 4503,
      "Ġshop": 4504,
      "Ġshines": 4505,
      "Ġneat": 4506,
      "Ġcaps": 4507,
      "Ġcaitiff": 4508,
      "Ġboast": 4509,
      "Ġrush": 4510,
      "Ġgoods": 4511,
      "Ġupright": 4512,
      "Ġunre": 4513,
      "Ġunfe": 4514,
      "Ġorn": 4515,
      "Ġamiss": 4516,
      "Ġambit": 4517,
      "ilth": 4518,
      "Ġdeaf": 4519,
      "Ġtaking": 4520,
      "Ġtakest": 4521,
      "Ġswore": 4522,
      "Ġsweat": 4523,
      "Ġbliss": 4524,
      "Ġarchi": 4525,
      "Ġarrest": 4526,
      "unate": 4527,
      "Ġwhereon": 4528,
      "Ġgrew": 4529,
      "Ġworm": 4530,
      "isters": 4531,
      "Ġenri": 4532,
      "Ġenforced": 4533,
      "Ġsav": 4534,
      "iege": 4535,
      "Ġmadness": 4536,
      "Ġages": 4537,
      "Ġaged": 4538,
      "Ġdido": 4539,
      "Ġtrunk": 4540,
      "Ġgrain": 4541,
      "Ġglo": 4542,
      "Ġbrown": 4543,
      "Ġabuse": 4544,
      "Ġabraham": 4545,
      "Ġlooked": 4546,
      "Ġexceed": 4547,
      "Ġalms": 4548,
      "Ġserp": 4549,
      "Ġtelling": 4550,
      "Ġcoronation": 4551,
      "Ġoffices": 4552,
      "Ġlap": 4553,
      "Ġluck": 4554,
      "Ġpath": 4555,
      "Ġpaid": 4556,
      "Ġbreed": 4557,
      "Ġbread": 4558,
      "Ġbreathing": 4559,
      "orney": 4560,
      "Ġpernic": 4561,
      "Ġprice": 4562,
      "Ġprime": 4563,
      "Ġbuck": 4564,
      "Ġflourish": 4565,
      "chief": 4566,
      "Ġfearing": 4567,
      "Ġsweetly": 4568,
      "Ġcounsell": 4569,
      "Ġparted": 4570,
      "Ġscatter": 4571,
      "Ġcoll": 4572,
      "Ġangel": 4573,
      "Ġappea": 4574,
      "Ġreply": 4575,
      "Ġreputation": 4576,
      "Ġgraced": 4577,
      "Ġrue": 4578,
      "Ġchildish": 4579,
      "Ġrestra": 4580,
      "Ġtrif": 4581,
      "Ġputting": 4582,
      "Ġcompare": 4583,
      "Ġgrim": 4584,
      "Ġprovide": 4585,
      "Ġprovided": 4586,
      "Ġbestow": 4587,
      "Ġbestri": 4588,
      "Ġbeshrew": 4589,
      "Ġbidding": 4590,
      "Ġendured": 4591,
      "Ġpurge": 4592,
      "Ġchallen": 4593,
      "Ġtravell": 4594,
      "Ġcheap": 4595,
      "Ġsenseless": 4596,
      "Ġbacks": 4597,
      "Ġconfound": 4598,
      "Ġbrid": 4599,
      "Ġbank": 4600,
      "Ġescape": 4601,
      "Ġnathaniel": 4602,
      "Ġlaws": 4603,
      "Ġlightning": 4604,
      "Ġmisfort": 4605,
      "Ġwiltshire": 4606,
      "Ġthirst": 4607,
      "Ġprosperity": 4608,
      "Ġroyalty": 4609,
      "Ġfalcon": 4610,
      "Ġobser": 4611,
      "Ġdepose": 4612,
      "Ġfalls": 4613,
      "Ġdrag": 4614,
      "Ġattorney": 4615,
      "Ġsitting": 4616,
      "Ġcharm": 4617,
      "Ġadvised": 4618,
      "Ġcourteous": 4619,
      "osen": 4620,
      "Ġcarried": 4621,
      "Ġcareful": 4622,
      "Ġvillains": 4623,
      "Ġtroop": 4624,
      "Ġtroops": 4625,
      "Ġwaves": 4626,
      "Ġdiscourse": 4627,
      "Ġaffords": 4628,
      "Ġdrunken": 4629,
      "Ġspoil": 4630,
      "acles": 4631,
      "Ġsadness": 4632,
      "Ġmonster": 4633,
      "Ġlately": 4634,
      "Ġsooner": 4635,
      "Ġsuits": 4636,
      "Ġrecre": 4637,
      "Ġmetal": 4638,
      "Ġprocess": 4639,
      "Ġminute": 4640,
      "Ġwritten": 4641,
      "Ġdespised": 4642,
      "Ġapothecary": 4643,
      "Ġbirds": 4644,
      "Ġnobility": 4645,
      "Ġofficers": 4646,
      "Ġburns": 4647,
      "Ġburnt": 4648,
      "Ġburning": 4649,
      "Ġpraises": 4650,
      "Ġskill": 4651,
      "Ġwisely": 4652,
      "Ġexped": 4653,
      "Ġhungry": 4654,
      "Ġliberal": 4655,
      "Ġblessing": 4656,
      "Ġjoints": 4657,
      "Ġesteem": 4658,
      "Ġinsol": 4659,
      "Ġinsult": 4660,
      "Ġflattering": 4661,
      "Ġbleeding": 4662,
      "Ġdestruction": 4663,
      "Ġactions": 4664,
      "Ġrebels": 4665,
      "Ġsuddenly": 4666,
      "Ġunworth": 4667,
      "Ġsuccession": 4668,
      "Ġsacrif": 4669,
      "Ġbitterly": 4670,
      "Ġviolence": 4671,
      "Ġgladly": 4672,
      "Ġtutor": 4673,
      "Ġchurchyard": 4674,
      "Ġtorch": 4675,
      "Ġmidnight": 4676,
      "Ġinjury": 4677,
      "Ġrank": 4678,
      "Ġgrandsire": 4679,
      "Ġmusicians": 4680,
      "Ġpossession": 4681,
      "Ġcondemned": 4682,
      "Ġmeddle": 4683,
      "Ġconstable": 4684,
      "Ġgardener": 4685,
      "Ġsteps": 4686,
      "headed": 4687,
      "Ġbastards": 4688,
      "Ġguests": 4689,
      "Ġimmortal": 4690,
      "Ġinclined": 4691,
      "Ġpiercing": 4692,
      "Ġbehavior": 4693,
      "Ġcovert": 4694,
      "Ġsubstance": 4695,
      "Ġmonths": 4696,
      "Ġconclud": 4697,
      "Ġbefall": 4698,
      "Ġshrift": 4699,
      "Ġprevented": 4700,
      "Ġscratch": 4701,
      "shall": 4702,
      "Ġsenses": 4703,
      "Ġweapon": 4704,
      "Ġweapons": 4705,
      "Ġmerely": 4706,
      "Ġstatue": 4707,
      "Ġfrancis": 4708,
      "Ġwolf": 4709,
      "Ġbands": 4710,
      "Ġcensure": 4711,
      "Ġrevolt": 4712,
      "Ġconjure": 4713,
      "Ġthreatening": 4714,
      "Ġbottom": 4715,
      "Ġafflict": 4716,
      "Ġdisease": 4717,
      "Ġinquire": 4718,
      "Ġarchbishop": 4719,
      "Ġprefer": 4720,
      "Ġclamour": 4721,
      "Ġrescue": 4722,
      "Ġcompanion": 4723,
      "Ġmoral": 4724,
      "Ġlimbs": 4725,
      "Ġdispersed": 4726,
      "Ġrapier": 4727,
      "Ġruthless": 4728,
      "Ġhenceforth": 4729,
      "Ġprovoked": 4730,
      "Ġintelligence": 4731,
      "Ġrecompen": 4732,
      "this": 4733,
      "Ġzeal": 4734,
      "Ġstretch": 4735,
      "Ġrejoice": 4736,
      "Ġspleen": 4737,
      "Ġcambio": 4738,
      "Ġcharacter": 4739,
      "Ġvelvet": 4740,
      "Ġprettiest": 4741,
      "Ġblemish": 4742,
      "damus": 4743,
      "Ġpeevish": 4744,
      "Ġlikeness": 4745,
      "Ġransom": 4746,
      "Ġwarriors": 4747,
      "Ġcommonwealth": 4748,
      "Ġproclamation": 4749,
      "Ġsepulchre": 4750,
      "Ġfardel": 4751,
      "Ġnuptial": 4752,
      "Ġgiddy": 4753,
      "Ġambitious": 4754,
      "Ġarchidamus": 4755,
      "Ġpernicious": 4756,
      "Ġchallenge": 4757,
      "Ġunworthy": 4758,
      "ax": 4759,
      "ares": 4760,
      "action": 4761,
      "acy": 4762,
      "br": 4763,
      "cri": 4764,
      "dess": 4765,
      "ece": 4766,
      "fold": 4767,
      "foot": 4768,
      "gle": 4769,
      "gues": 4770,
      "kind": 4771,
      "lu": 4772,
      "lot": 4773,
      "long": 4774,
      "lves": 4775,
      "mate": 4776,
      "mak": 4777,
      "made": 4778,
      "nt": 4779,
      "now": 4780,
      "nous": 4781,
      "nel": 4782,
      "ocate": 4783,
      "sop": 4784,
      "tin": 4785,
      "ton": 4786,
      "tell": 4787,
      "wing": 4788,
      "zounds": 4789,
      "Ġought": 4790,
      "Ġtard": 4791,
      "Ġtie": 4792,
      "Ġtrow": 4793,
      "Ġtree": 4794,
      "Ġsess": 4795,
      "Ġsith": 4796,
      "Ġsides": 4797,
      "Ġslight": 4798,
      "Ġsilly": 4799,
      "Ġwet": 4800,
      "Ġir": 4801,
      "Ġice": 4802,
      "oured": 4803,
      "oubt": 4804,
      "Ġmas": 4805,
      "Ġmould": 4806,
      "Ġmates": 4807,
      "Ġbru": 4808,
      "reet": 4809,
      "reme": 4810,
      "ndy": 4811,
      "inherit": 4812,
      "Ġfin": 4813,
      "Ġfret": 4814,
      "Ġfif": 4815,
      "Ġfingers": 4816,
      "Ġcus": 4817,
      "Ġcent": 4818,
      "Ġcard": 4819,
      "Ġcot": 4820,
      "Ġcook": 4821,
      "erves": 4822,
      "Ġlour": 4823,
      "Ġdar": 4824,
      "Ġdine": 4825,
      "Ġdian": 4826,
      "Ġdower": 4827,
      "Ġdrew": 4828,
      "Ġnar": 4829,
      "hions": 4830,
      "Ġpor": 4831,
      "Ġpent": 4832,
      "Ġpour": 4833,
      "Ġpill": 4834,
      "Ġpush": 4835,
      "Ġpict": 4836,
      "Ġtops": 4837,
      "Ġheight": 4838,
      "onious": 4839,
      "Ġgam": 4840,
      "Ġgains": 4841,
      "Ġgoose": 4842,
      "Ġhag": 4843,
      "Ġbell": 4844,
      "Ġbeef": 4845,
      "Ġinv": 4846,
      "Ġinch": 4847,
      "athe": 4848,
      "athed": 4849,
      "rib": 4850,
      "edic": 4851,
      "ediate": 4852,
      "ayed": 4853,
      "utch": 4854,
      "Ġissu": 4855,
      "Ġweek": 4856,
      "iring": 4857,
      "Ġmew": 4858,
      "Ġmemb": 4859,
      "Ġeight": 4860,
      "Ġhy": 4861,
      "itch": 4862,
      "rog": 4863,
      "Ġstead": 4864,
      "Ġasham": 4865,
      "Ġaspect": 4866,
      "ising": 4867,
      "Ġsoil": 4868,
      "Ġsoci": 4869,
      "Ġrend": 4870,
      "Ġrear": 4871,
      "Ġreach": 4872,
      "Ġrevel": 4873,
      "Ġrevive": 4874,
      "Ġlikes": 4875,
      "Ġlions": 4876,
      "Ġlivest": 4877,
      "adv": 4878,
      "order": 4879,
      "Ġvast": 4880,
      "asp": 4881,
      "ases": 4882,
      "urgh": 4883,
      "Ġsevere": 4884,
      "Ġsearch": 4885,
      "Ġallay": 4886,
      "Ġalleg": 4887,
      "Ġgoss": 4888,
      "Ġherd": 4889,
      "Ġsugg": 4890,
      "verty": 4891,
      "Ġsprings": 4892,
      "Ġshot": 4893,
      "Ġshoes": 4894,
      "Ġriches": 4895,
      "Ġcab": 4896,
      "Ġfray": 4897,
      "Ġrhe": 4898,
      "Ġrate": 4899,
      "Ġrouse": 4900,
      "Ġja": 4901,
      "Ġjesu": 4902,
      "tering": 4903,
      "ferent": 4904,
      "Ġunlike": 4905,
      "Ġunlaw": 4906,
      "Ġmarvel": 4907,
      "Ġmarvell": 4908,
      "Ġdeform": 4909,
      "ulous": 4910,
      "Ġcong": 4911,
      "Ġconsequ": 4912,
      "Ġherein": 4913,
      "Ġamain": 4914,
      "Ġamorous": 4915,
      "Ġproved": 4916,
      "Ġdearer": 4917,
      "Ġtack": 4918,
      "Ġseeking": 4919,
      "Ġswo": 4920,
      "Ġswears": 4921,
      "Ġblown": 4922,
      "Ġblue": 4923,
      "olks": 4924,
      "Ġlovel": 4925,
      "Ġpop": 4926,
      "Ġpoverty": 4927,
      "Ġarray": 4928,
      "umed": 4929,
      "Ġhoar": 4930,
      "astic": 4931,
      "Ġsaved": 4932,
      "iece": 4933,
      "Ġlikewise": 4934,
      "pel": 4935,
      "ickle": 4936,
      "Ġtied": 4937,
      "Ġtired": 4938,
      "Ġgoddess": 4939,
      "ably": 4940,
      "Ġspeaking": 4941,
      "Ġleg": 4942,
      "Ġlect": 4943,
      "Ġdisinherit": 4944,
      "Ġoutrage": 4945,
      "iced": 4946,
      "Ġbrat": 4947,
      "losop": 4948,
      "Ġabund": 4949,
      "arers": 4950,
      "Ġalso": 4951,
      "Ġleap": 4952,
      "igned": 4953,
      "Ġpetty": 4954,
      "Ġpace": 4955,
      "Ġparents": 4956,
      "Ġpermit": 4957,
      "Ġperchance": 4958,
      "perience": 4959,
      "ize": 4960,
      "Ġbetide": 4961,
      "opher": 4962,
      "Ġrag": 4963,
      "aged": 4964,
      "Ġfoll": 4965,
      "Ġplebe": 4966,
      "Ġparties": 4967,
      "Ġpartner": 4968,
      "Ġsca": 4969,
      "Ġscot": 4970,
      "Ġharp": 4971,
      "Ġcoat": 4972,
      "Ġcovent": 4973,
      "Ġcozen": 4974,
      "Ġdownright": 4975,
      "Ġnights": 4976,
      "Ġafraid": 4977,
      "Ġworldly": 4978,
      "Ġkeys": 4979,
      "Ġpresume": 4980,
      "Ġmerchant": 4981,
      "Ġrum": 4982,
      "Ġmightst": 4983,
      "Ġcler": 4984,
      "Ġchosen": 4985,
      "shine": 4986,
      "Ġsettled": 4987,
      "Ġcourts": 4988,
      "twould": 4989,
      "Ġrestore": 4990,
      "Ġtricks": 4991,
      "idered": 4992,
      "Ġcompli": 4993,
      "Ġcompound": 4994,
      "Ġbrains": 4995,
      "Ġentrance": 4996,
      "Ġcouldst": 4997,
      "Ġbeside": 4998,
      "Ġhelps": 4999,
      "Ġended": 5000,
      "Ġpursue": 5001,
      "Ġsmil": 5002,
      "Ġtrain": 5003,
      "Ġcheque": 5004,
      "Ġwelsh": 5005,
      "Ġhopeful": 5006,
      "Ġearthly": 5007,
      "Ġbusy": 5008,
      "Ġhomely": 5009,
      "Ġparce": 5010,
      "Ġfever": 5011,
      "Ġfully": 5012,
      "Ġdevour": 5013,
      "Ġobsequ": 5014,
      "Ġlanded": 5015,
      "Ġstrict": 5016,
      "Ġsignal": 5017,
      "Ġsignify": 5018,
      "Ġretired": 5019,
      "Ġsounds": 5020,
      "Ġsounded": 5021,
      "Ġcharges": 5022,
      "Ġthankful": 5023,
      "Ġadvocate": 5024,
      "Ġfalsely": 5025,
      "Ġcourtier": 5026,
      "Ġintents": 5027,
      "Ġinteg": 5028,
      "Ġcommands": 5029,
      "Ġrevenges": 5030,
      "Ġcontents": 5031,
      "Ġstream": 5032,
      "Ġstraw": 5033,
      "Ġwax": 5034,
      "Ġwave": 5035,
      "Ġprompt": 5036,
      "Ġkisses": 5037,
      "Ġlambs": 5038,
      "erest": 5039,
      "Ġpurple": 5040,
      "Ġaffright": 5041,
      "Ġwinters": 5042,
      "iliar": 5043,
      "Ġbeats": 5044,
      "Ġbeaten": 5045,
      "Ġmonarch": 5046,
      "Ġcrying": 5047,
      "Ġrecover": 5048,
      "noble": 5049,
      "Ġprocure": 5050,
      "Ġlearned": 5051,
      "Ġboldness": 5052,
      "Ġminola": 5053,
      "Ġministers": 5054,
      "Ġtouching": 5055,
      "Ġruns": 5056,
      "Ġdraws": 5057,
      "Ġapace": 5058,
      "Ġreadiness": 5059,
      "Ġentreaties": 5060,
      "guard": 5061,
      "gundy": 5062,
      "Ġlewd": 5063,
      "Ġdivor": 5064,
      "Ġclean": 5065,
      "Ġyouthful": 5066,
      "Ġnobleness": 5067,
      "Ġforgiven": 5068,
      "Ġvenice": 5069,
      "Ġdevilish": 5070,
      "Ġterm": 5071,
      "Ġwednes": 5072,
      "Ġprophes": 5073,
      "Ġburgundy": 5074,
      "Ġbeggars": 5075,
      "chers": 5076,
      "Ġskull": 5077,
      "Ġsteep": 5078,
      "Ġverily": 5079,
      "Ġcloudy": 5080,
      "Ġimper": 5081,
      "Ġpedlar": 5082,
      "Ġsatisfaction": 5083,
      "Ġdrinking": 5084,
      "Ġsafely": 5085,
      "Ġlamentable": 5086,
      "Ġbowels": 5087,
      "Ġframed": 5088,
      "Ġtowns": 5089,
      "Ġeaten": 5090,
      "Ġseated": 5091,
      "Ġdefy": 5092,
      "Ġhurl": 5093,
      "Ġapprobation": 5094,
      "Ġchristopher": 5095,
      "spurgh": 5096,
      "Ġcowardly": 5097,
      "Ġowes": 5098,
      "Ġdarkness": 5099,
      "Ġpalm": 5100,
      "Ġships": 5101,
      "Ġwaked": 5102,
      "Ġkinsmen": 5103,
      "Ġdeparture": 5104,
      "Ġtemples": 5105,
      "Ġmiddle": 5106,
      "Ġghostly": 5107,
      "Ġinjurious": 5108,
      "Ġintended": 5109,
      "Ġusurping": 5110,
      "Ġmildly": 5111,
      "Ġmildness": 5112,
      "Ġfamiliar": 5113,
      "Ġfondly": 5114,
      "Ġstops": 5115,
      "Ġlists": 5116,
      "Ġcomplaint": 5117,
      "Ġgrieves": 5118,
      "Ġgrieved": 5119,
      "Ġtreasons": 5120,
      "Ġextreme": 5121,
      "ossess": 5122,
      "Ġmutinous": 5123,
      "Ġbelong": 5124,
      "Ġseized": 5125,
      "Ġsentenced": 5126,
      "Ġtroubled": 5127,
      "Ġslipp": 5128,
      "Ġcrook": 5129,
      "Ġcrush": 5130,
      "Ġstorms": 5131,
      "Ġconquest": 5132,
      "Ġrobb": 5133,
      "Ġrobes": 5134,
      "Ġeldest": 5135,
      "Ġacquainted": 5136,
      "govern": 5137,
      "Ġimmediate": 5138,
      "Ġgreeting": 5139,
      "Ġerrand": 5140,
      "Ġbootless": 5141,
      "Ġconclude": 5142,
      "blood": 5143,
      "Ġtyrannous": 5144,
      "Ġgifts": 5145,
      "Ġtempted": 5146,
      "Ġinfected": 5147,
      "Ġmeantime": 5148,
      "Ġhostess": 5149,
      "Ġheavier": 5150,
      "Ġdesigns": 5151,
      "Ġpreserve": 5152,
      "Ġdetest": 5153,
      "Ġfrank": 5154,
      "Ġconqueror": 5155,
      "Ġamends": 5156,
      "Ġwandering": 5157,
      "Ġfrozen": 5158,
      "Ġvanity": 5159,
      "Ġdissol": 5160,
      "Ġaccusation": 5161,
      "Ġravenspurgh": 5162,
      "Ġdiscontented": 5163,
      "Ġprofane": 5164,
      "Ġtestim": 5165,
      "Ġhazard": 5166,
      "Ġstolen": 5167,
      "Ġvarlet": 5168,
      "Ġinstantly": 5169,
      "Ġfigure": 5170,
      "Ġfurnish": 5171,
      "Ġphilosop": 5172,
      "Ġmanifest": 5173,
      "Ġdischarge": 5174,
      "Ġcorrection": 5175,
      "Ġcircumstance": 5176,
      "Ġreckon": 5177,
      "Ġsplit": 5178,
      "Ġcomplexion": 5179,
      "Ġsmother": 5180,
      "Ġreconcile": 5181,
      "Ġunkindness": 5182,
      "Ġsubstitute": 5183,
      "which": 5184,
      "Ġfelt": 5185,
      "Ġfreedom": 5186,
      "Ġnimble": 5187,
      "onstant": 5188,
      "Ġbereft": 5189,
      "Ġbeams": 5190,
      "Ġexample": 5191,
      "Ġsufficient": 5192,
      "Ġestimation": 5193,
      "Ġoccupation": 5194,
      "Ġpilgrimage": 5195,
      "Ġfantastic": 5196,
      "Ġcouple": 5197,
      "Ġenrich": 5198,
      "Ġsavage": 5199,
      "Ġbridal": 5200,
      "Ġmisfortune": 5201,
      "Ġrecompense": 5202,
      "Ġnarrow": 5203,
      "Ġmembers": 5204,
      "Ġashamed": 5205,
      "Ġallegiance": 5206,
      "Ġcoventry": 5207,
      "Ġintegrity": 5208,
      "Ġwednesday": 5209,
      "Ġphilosophy": 5210,
      "app": 5211,
      "bot": 5212,
      "bod": 5213,
      "back": 5214,
      "co": 5215,
      "can": 5216,
      "cke": 5217,
      "cra": 5218,
      "cest": 5219,
      "cast": 5220,
      "came": 5221,
      "cock": 5222,
      "eb": 5223,
      "ex": 5224,
      "eks": 5225,
      "gist": 5226,
      "gnoble": 5227,
      "horse": 5228,
      "lor": 5229,
      "look": 5230,
      "lance": 5231,
      "longs": 5232,
      "mo": 5233,
      "mast": 5234,
      "nib": 5235,
      "oe": 5236,
      "oster": 5237,
      "pable": 5238,
      "scape": 5239,
      "ta": 5240,
      "tes": 5241,
      "tied": 5242,
      "tany": 5243,
      "trees": 5244,
      "uced": 5245,
      "ually": 5246,
      "vied": 5247,
      "wear": 5248,
      "will": 5249,
      "wart": 5250,
      "work": 5251,
      "your": 5252,
      "Ġtorn": 5253,
      "Ġtew": 5254,
      "Ġtroy": 5255,
      "here": 5256,
      "Ġack": 5257,
      "Ġafe": 5258,
      "Ġafore": 5259,
      "Ġape": 5260,
      "Ġaims": 5261,
      "Ġsow": 5262,
      "Ġsoo": 5263,
      "Ġsand": 5264,
      "Ġsong": 5265,
      "Ġwen": 5266,
      "Ġwring": 5267,
      "Ġignoble": 5268,
      "Ġmom": 5269,
      "Ġmouse": 5270,
      "Ġmask": 5271,
      "Ġbul": 5272,
      "Ġboun": 5273,
      "Ġbows": 5274,
      "hand": 5275,
      "hage": 5276,
      "Ġtheme": 5277,
      "inu": 5278,
      "inies": 5279,
      "Ġfount": 5280,
      "Ġflock": 5281,
      "Ġfulf": 5282,
      "Ġfilth": 5283,
      "Ġfolks": 5284,
      "Ġcher": 5285,
      "Ġcord": 5286,
      "Ġcart": 5287,
      "Ġcords": 5288,
      "Ġcrows": 5289,
      "Ġline": 5290,
      "Ġlute": 5291,
      "Ġlinger": 5292,
      "Ġdried": 5293,
      "Ġdined": 5294,
      "Ġned": 5295,
      "Ġnigh": 5296,
      "Ġnourish": 5297,
      "Ġnamed": 5298,
      "Ġyare": 5299,
      "Ġyester": 5300,
      "Ġpow": 5301,
      "Ġpest": 5302,
      "Ġpant": 5303,
      "Ġpem": 5304,
      "Ġpatter": 5305,
      "Ġpup": 5306,
      "Ġpho": 5307,
      "Ġtoads": 5308,
      "arm": 5309,
      "Ġheel": 5310,
      "Ġheigh": 5311,
      "Ġheinous": 5312,
      "Ġgli": 5313,
      "Ġgather": 5314,
      "Ġgame": 5315,
      "thood": 5316,
      "ingu": 5317,
      "Ġthrown": 5318,
      "Ġthrew": 5319,
      "Ġnod": 5320,
      "Ġnoon": 5321,
      "aning": 5322,
      "Ġhall": 5323,
      "Ġhaunt": 5324,
      "Ġbecame": 5325,
      "seth": 5326,
      "Ġhinder": 5327,
      "Ġinward": 5328,
      "Ġinvent": 5329,
      "leful": 5330,
      "ril": 5331,
      "Ġkent": 5332,
      "lded": 5333,
      "Ġmeed": 5334,
      "Ġmeal": 5335,
      "Ġhood": 5336,
      "keep": 5337,
      "entle": 5338,
      "itation": 5339,
      "ourn": 5340,
      "eas": 5341,
      "Ġug": 5342,
      "Ġstart": 5343,
      "Ġstink": 5344,
      "Ġstag": 5345,
      "Ġstark": 5346,
      "Ġstiff": 5347,
      "Ġash": 5348,
      "Ġasking": 5349,
      "Ġashes": 5350,
      "Ġascend": 5351,
      "ishes": 5352,
      "Ġbutt": 5353,
      "Ġbutter": 5354,
      "Ġrein": 5355,
      "Ġreli": 5356,
      "Ġresemb": 5357,
      "Ġlick": 5358,
      "Ġlief": 5359,
      "advent": 5360,
      "Ġvul": 5361,
      "Ġvass": 5362,
      "Ġventure": 5363,
      "rament": 5364,
      "racious": 5365,
      "Ġdoct": 5366,
      "Ġwhatsoever": 5367,
      "urb": 5368,
      "Ġmoe": 5369,
      "Ġmoving": 5370,
      "Ġmoiety": 5371,
      "Ġancest": 5372,
      "Ġshade": 5373,
      "rue": 5374,
      "ruly": 5375,
      "amy": 5376,
      "amity": 5377,
      "aments": 5378,
      "lip": 5379,
      "lihood": 5380,
      "Ġsunday": 5381,
      "Ġlock": 5382,
      "Ġlodge": 5383,
      "Ġloathed": 5384,
      "Ġmagist": 5385,
      "Ġspa": 5386,
      "Ġspark": 5387,
      "Ġspider": 5388,
      "Ġspurs": 5389,
      "Ġwhipp": 5390,
      "Ġwhipt": 5391,
      "Ġshine": 5392,
      "Ġshown": 5393,
      "Ġshout": 5394,
      "Ġshrink": 5395,
      "Ġrig": 5396,
      "Ġridd": 5397,
      "Ġnept": 5398,
      "Ġcauses": 5399,
      "Ġfrant": 5400,
      "Ġfront": 5401,
      "Ġbolt": 5402,
      "Ġboister": 5403,
      "Ġroof": 5404,
      "Ġrushes": 5405,
      "Ġjer": 5406,
      "Ġjun": 5407,
      "Ġunruly": 5408,
      "Ġthereto": 5409,
      "Ġdumb": 5410,
      "Ġmarqu": 5411,
      "Ġprat": 5412,
      "Ġprate": 5413,
      "Ġprating": 5414,
      "Ġorator": 5415,
      "last": 5416,
      "laims": 5417,
      "Ġdeer": 5418,
      "Ġdeceive": 5419,
      "Ġconven": 5420,
      "Ġmanhood": 5421,
      "Ġcanop": 5422,
      "Ġcanker": 5423,
      "Ġtaunts": 5424,
      "resh": 5425,
      "Ġseeks": 5426,
      "icle": 5427,
      "icious": 5428,
      "ived": 5429,
      "ively": 5430,
      "Ġblan": 5431,
      "Ġworms": 5432,
      "Ġworser": 5433,
      "isting": 5434,
      "Ġsap": 5435,
      "Ġsack": 5436,
      "Ġmadest": 5437,
      "Ġagreed": 5438,
      "Ġshoulders": 5439,
      "Ġlikelihood": 5440,
      "Ġmustard": 5441,
      "peian": 5442,
      "Ġnorthern": 5443,
      "Ġbald": 5444,
      "Ġbaby": 5445,
      "Ġgrass": 5446,
      "Ġgraces": 5447,
      "ption": 5448,
      "ables": 5449,
      "Ġjupit": 5450,
      "Ġlevel": 5451,
      "Ġdiso": 5452,
      "Ġdissemb": 5453,
      "Ġdissemble": 5454,
      "Ġdisorder": 5455,
      "Ġbranch": 5456,
      "Ġexact": 5457,
      "Ġalar": 5458,
      "Ġaloud": 5459,
      "Ġalban": 5460,
      "Ġserious": 5461,
      "Ġleaving": 5462,
      "ciful": 5463,
      "Ġrode": 5464,
      "Ġroses": 5465,
      "Ġroaring": 5466,
      "Ġoffences": 5467,
      "Ġbrotherhood": 5468,
      "Ġplan": 5469,
      "Ġawaked": 5470,
      "Ġdesc": 5471,
      "Ġevermore": 5472,
      "Ġeverlast": 5473,
      "Ġperf": 5474,
      "Ġperfection": 5475,
      "Ġprivy": 5476,
      "Ġbud": 5477,
      "Ġbuzz": 5478,
      "Ġflint": 5479,
      "Ġmerciful": 5480,
      "Ġsecrets": 5481,
      "Ġrace": 5482,
      "Ġrack": 5483,
      "Ġsweetest": 5484,
      "aken": 5485,
      "akes": 5486,
      "mps": 5487,
      "Ġfox": 5488,
      "Ġscur": 5489,
      "Ġscore": 5490,
      "Ġnobleman": 5491,
      "Ġharvest": 5492,
      "Ġharbour": 5493,
      "Ġharlot": 5494,
      "Ġcoast": 5495,
      "Ġmeaner": 5496,
      "Ġangels": 5497,
      "Ġotherwise": 5498,
      "Ġappears": 5499,
      "Ġdownfall": 5500,
      "Ġcontri": 5501,
      "Ġcontend": 5502,
      "Ġnighting": 5503,
      "Ġnightly": 5504,
      "Ġrepri": 5505,
      "Ġrepro": 5506,
      "Ġkey": 5507,
      "Ġbegot": 5508,
      "Ġconsorted": 5509,
      "Ġconsidered": 5510,
      "Ġpresum": 5511,
      "caped": 5512,
      "Ġmothers": 5513,
      "Ġchose": 5514,
      "Ġchop": 5515,
      "Ġfriendship": 5516,
      "rites": 5517,
      "Ġshowing": 5518,
      "Ġsetting": 5519,
      "Ġrests": 5520,
      "ksbury": 5521,
      "Ġbrand": 5522,
      "Ġbraved": 5523,
      "Ġmurders": 5524,
      "Ġdearth": 5525,
      "Ġfaced": 5526,
      "Ġcapulets": 5527,
      "Ġchamp": 5528,
      "Ġtrees": 5529,
      "Ġconfusion": 5530,
      "Ġconfidence": 5531,
      "Ġconfeder": 5532,
      "Ġfollowing": 5533,
      "Ġafterward": 5534,
      "Ġimpeach": 5535,
      "Ġchances": 5536,
      "Ġchanging": 5537,
      "Ġhappier": 5538,
      "Ġcousins": 5539,
      "Ġfeat": 5540,
      "Ġlights": 5541,
      "there": 5542,
      "Ġmiscar": 5543,
      "Ġmischief": 5544,
      "Ġpatron": 5545,
      "Ġuncertain": 5546,
      "Ġarmed": 5547,
      "Ġdevils": 5548,
      "Ġroyalties": 5549,
      "Ġwronged": 5550,
      "Ġobsc": 5551,
      "Ġdiest": 5552,
      "Ġlasting": 5553,
      "xteen": 5554,
      "Ġstrife": 5555,
      "Ġbelieved": 5556,
      "Ġfallen": 5557,
      "Ġfalling": 5558,
      "Ġdram": 5559,
      "Ġthousands": 5560,
      "Ġplays": 5561,
      "Ġtalking": 5562,
      "Ġmurdered": 5563,
      "Ġhumility": 5564,
      "Ġbarb": 5565,
      "Ġpersons": 5566,
      "Ġmontagues": 5567,
      "Ġhangman": 5568,
      "Ġmatters": 5569,
      "Ġdelicate": 5570,
      "oses": 5571,
      "Ġfights": 5572,
      "Ġcarries": 5573,
      "Ġdancing": 5574,
      "Ġrevenue": 5575,
      "Ġdreamt": 5576,
      "Ġcrab": 5577,
      "Ġcracking": 5578,
      "Ġsupport": 5579,
      "Ġdoubtful": 5580,
      "Ġproudest": 5581,
      "Ġwaits": 5582,
      "Ġfouler": 5583,
      "Ġyielding": 5584,
      "Ġbreaks": 5585,
      "Ġbreaking": 5586,
      "Ġwindow": 5587,
      "Ġclock": 5588,
      "Ġclosed": 5589,
      "Ġcloak": 5590,
      "Ġdared": 5591,
      "Ġrequire": 5592,
      "Ġrequires": 5593,
      "Ġbeating": 5594,
      "Ġtenderness": 5595,
      "Ġsadly": 5596,
      "Ġsaddle": 5597,
      "Ġreported": 5598,
      "Ġsixteen": 5599,
      "Ġsuffice": 5600,
      "Ġsilk": 5601,
      "Ġwatery": 5602,
      "Ġlearning": 5603,
      "Ġgrowth": 5604,
      "Ġminutes": 5605,
      "Ġairy": 5606,
      "Ġconfessor": 5607,
      "Ġconfession": 5608,
      "ustice": 5609,
      "Ġapart": 5610,
      "Ġbattles": 5611,
      "Ġentreaty": 5612,
      "gued": 5613,
      "Ġdivided": 5614,
      "Ġquarter": 5615,
      "Ġmurderous": 5616,
      "Ġattended": 5617,
      "Ġrevengeful": 5618,
      "Ġsurfeit": 5619,
      "Ġsurpri": 5620,
      "Ġforehead": 5621,
      "Ġcalamity": 5622,
      "Ġspeedy": 5623,
      "Ġplants": 5624,
      "Ġleaden": 5625,
      "Ġveil": 5626,
      "Ġdistress": 5627,
      "Ġdistingu": 5628,
      "Ġdisturb": 5629,
      "Ġsoftly": 5630,
      "Ġwedded": 5631,
      "Ġwonderful": 5632,
      "Ġlads": 5633,
      "Ġbosoms": 5634,
      "Ġharmony": 5635,
      "Ġvolscians": 5636,
      "Ġvolscian": 5637,
      "Ġsingular": 5638,
      "Ġburden": 5639,
      "Ġacts": 5640,
      "Ġsteward": 5641,
      "Ġsuffering": 5642,
      "Ġsufferance": 5643,
      "Ġembass": 5644,
      "Ġproceedings": 5645,
      "Ġbreasts": 5646,
      "Ġfeasts": 5647,
      "Ġhunger": 5648,
      "Ġredempt": 5649,
      "Ġknocks": 5650,
      "Ġvisitation": 5651,
      "Ġinsinu": 5652,
      "Ġinterp": 5653,
      "Ġinterrupt": 5654,
      "Ġundo": 5655,
      "Ġtroubl": 5656,
      "Ġoppression": 5657,
      "Ġdestiny": 5658,
      "Ġsafeguard": 5659,
      "Ġlamentation": 5660,
      "Ġbowl": 5661,
      "Ġpitied": 5662,
      "Ġevils": 5663,
      "Ġrebu": 5664,
      "Ġunwilling": 5665,
      "Ġconcerns": 5666,
      "Ġscorns": 5667,
      "Ġcertainly": 5668,
      "Ġsummon": 5669,
      "Ġcommends": 5670,
      "Ġsacrament": 5671,
      "Ġapproved": 5672,
      "Ġsmallest": 5673,
      "standing": 5674,
      "Ġtemple": 5675,
      "Ġutmost": 5676,
      "Ġmidst": 5677,
      "Ġmidwife": 5678,
      "Ġinjustice": 5679,
      "Ġintends": 5680,
      "Ġdamnable": 5681,
      "Ġeasily": 5682,
      "Ġextremes": 5683,
      "ivant": 5684,
      "Ġmedic": 5685,
      "Ġreigns": 5686,
      "Ġunpro": 5687,
      "Ġslanderous": 5688,
      "Ġslily": 5689,
      "Ġbending": 5690,
      "Ġtarpeian": 5691,
      "Ġlenity": 5692,
      "Ġlowly": 5693,
      "Ġmodel": 5694,
      "umbling": 5695,
      "Ġenvir": 5696,
      "Ġimagination": 5697,
      "Ġmountain": 5698,
      "Ġblushing": 5699,
      "ships": 5700,
      "Ġerr": 5701,
      "Ġerror": 5702,
      "Ġcreep": 5703,
      "Ġcrept": 5704,
      "Ġglasses": 5705,
      "Ġconclusion": 5706,
      "shearing": 5707,
      "Ġmilk": 5708,
      "Ġcupid": 5709,
      "Ġpilot": 5710,
      "Ġpursued": 5711,
      "Ġpursuit": 5712,
      "Ġpursuivant": 5713,
      "Ġprophecy": 5714,
      "rateful": 5715,
      "Ġavoided": 5716,
      "Ġclimate": 5717,
      "Ġdrift": 5718,
      "Ġforsake": 5719,
      "Ġforsooth": 5720,
      "Ġstarve": 5721,
      "Ġloathsome": 5722,
      "Ġroundly": 5723,
      "Ġdisgraced": 5724,
      "Ġpatrician": 5725,
      "Ġadvanced": 5726,
      "Ġguiltless": 5727,
      "board": 5728,
      "Ġnaught": 5729,
      "Ġnails": 5730,
      "Ġeager": 5731,
      "Ġloyalty": 5732,
      "whel": 5733,
      "where": 5734,
      "Ġsycor": 5735,
      "Ġsensible": 5736,
      "Ġblaze": 5737,
      "Ġpinch": 5738,
      "Ġstatutes": 5739,
      "Ġstocks": 5740,
      "Ġcorruption": 5741,
      "Ġadopt": 5742,
      "Ġchiefest": 5743,
      "Ġwalter": 5744,
      "Ġwolves": 5745,
      "Ġfrost": 5746,
      "ligence": 5747,
      "Ġlodged": 5748,
      "Ġlodging": 5749,
      "Ġlinea": 5750,
      "Ġpuiss": 5751,
      "Ġrelent": 5752,
      "Ġwhoreson": 5753,
      "Ġmaidenhead": 5754,
      "Ġaffliction": 5755,
      "Ġfleet": 5756,
      "Ġwhispering": 5757,
      "Ġunlook": 5758,
      "Ġunluck": 5759,
      "Ġswelling": 5760,
      "Ġperjury": 5761,
      "Ġperjured": 5762,
      "Ġadvert": 5763,
      "Ġadverse": 5764,
      "Ġcompassion": 5765,
      "Ġantium": 5766,
      "Ġabhorr": 5767,
      "Ġlunatic": 5768,
      "Ġchastise": 5769,
      "Ġachieve": 5770,
      "Ġwrinkled": 5771,
      "Ġunseen": 5772,
      "Ġmultitude": 5773,
      "Ġdispleasure": 5774,
      "Ġceremonious": 5775,
      "Ġtunis": 5776,
      "Ġmoody": 5777,
      "Ġbrittany": 5778,
      "Ġkites": 5779,
      "Ġsuperf": 5780,
      "Ġmariners": 5781,
      "Ġbranches": 5782,
      "Ġincensed": 5783,
      "Ġfifteen": 5784,
      "Ġinnocence": 5785,
      "Ġflatterers": 5786,
      "Ġeternal": 5787,
      "Ġtiger": 5788,
      "Ġnumbers": 5789,
      "Ġpearl": 5790,
      "Ġhistory": 5791,
      "Ġornaments": 5792,
      "Ġgloves": 5793,
      "Ġserpent": 5794,
      "Ġcounsellor": 5795,
      "Ġtrifles": 5796,
      "Ġrecreant": 5797,
      "Ġinsulting": 5798,
      "Ġtardy": 5799,
      "Ġfifth": 5800,
      "advised": 5801,
      "Ġcabin": 5802,
      "Ġmarvellous": 5803,
      "Ġconsequence": 5804,
      "Ġpopular": 5805,
      "Ġplebeians": 5806,
      "Ġscotland": 5807,
      "Ġforgiveness": 5808,
      "Ġprophesy": 5809,
      "Ġtewksbury": 5810,
      "Ġacknow": 5811,
      "Ġafeard": 5812,
      "Ġwenches": 5813,
      "Ġmoment": 5814,
      "Ġbounty": 5815,
      "Ġcarthage": 5816,
      "Ġpestil": 5817,
      "Ġpembroke": 5818,
      "Ġpattern": 5819,
      "adventure": 5820,
      "Ġneptune": 5821,
      "Ġfrantic": 5822,
      "Ġboisterous": 5823,
      "Ġjupiter": 5824,
      "Ġredemption": 5825,
      "Ġsycorax": 5826,
      "ave": 5827,
      "ais": 5828,
      "aves": 5829,
      "ault": 5830,
      "aches": 5831,
      "ails": 5832,
      "bea": 5833,
      "bear": 5834,
      "cer": 5835,
      "cat": 5836,
      "cul": 5837,
      "core": 5838,
      "cation": 5839,
      "cund": 5840,
      "fran": 5841,
      "gl": 5842,
      "grown": 5843,
      "how": 5844,
      "ips": 5845,
      "ivers": 5846,
      "jud": 5847,
      "kens": 5848,
      "lord": 5849,
      "lain": 5850,
      "lter": 5851,
      "lful": 5852,
      "liness": 5853,
      "mar": 5854,
      "met": 5855,
      "mind": 5856,
      "net": 5857,
      "neath": 5858,
      "off": 5859,
      "oint": 5860,
      "por": 5861,
      "phan": 5862,
      "pire": 5863,
      "si": 5864,
      "sk": 5865,
      "sion": 5866,
      "side": 5867,
      "tic": 5868,
      "uge": 5869,
      "ucy": 5870,
      "vill": 5871,
      "vil": 5872,
      "vation": 5873,
      "vided": 5874,
      "wack": 5875,
      "yally": 5876,
      "zy": 5877,
      "zing": 5878,
      "Ġtea": 5879,
      "Ġtink": 5880,
      "Ġtents": 5881,
      "Ġtainted": 5882,
      "Ġtamed": 5883,
      "Ġtumble": 5884,
      "heard": 5885,
      "Ġsine": 5886,
      "Ġsim": 5887,
      "Ġsiege": 5888,
      "Ġwester": 5889,
      "Ġwran": 5890,
      "Ġmoun": 5891,
      "Ġmass": 5892,
      "Ġmiles": 5893,
      "Ġbate": 5894,
      "Ġbought": 5895,
      "Ġbount": 5896,
      "haeth": 5897,
      "habit": 5898,
      "reth": 5899,
      "inal": 5900,
      "inate": 5901,
      "Ġfre": 5902,
      "Ġfest": 5903,
      "Ġfid": 5904,
      "Ġfart": 5905,
      "Ġfate": 5906,
      "Ġfem": 5907,
      "Ġcand": 5908,
      "Ġcrew": 5909,
      "Ġcull": 5910,
      "Ġcuck": 5911,
      "Ġcrest": 5912,
      "Ġcurious": 5913,
      "erved": 5914,
      "Ġlink": 5915,
      "Ġloose": 5916,
      "Ġdom": 5917,
      "Ġdame": 5918,
      "Ġdaint": 5919,
      "Ġdaring": 5920,
      "Ġdrows": 5921,
      "Ġdedic": 5922,
      "Ġnon": 5923,
      "Ġnut": 5924,
      "Ġnail": 5925,
      "Ġnursed": 5926,
      "hire": 5927,
      "ening": 5928,
      "Ġpine": 5929,
      "Ġpol": 5930,
      "Ġpate": 5931,
      "Ġpull": 5932,
      "Ġpuff": 5933,
      "Ġpounds": 5934,
      "Ġprun": 5935,
      "Ġphaeth": 5936,
      "Ġtoe": 5937,
      "Ġtoy": 5938,
      "Ġtoken": 5939,
      "Ġtonight": 5940,
      "aration": 5941,
      "arison": 5942,
      "Ġhect": 5943,
      "Ġhedge": 5944,
      "Ġgle": 5945,
      "Ġgulf": 5946,
      "thou": 5947,
      "thri": 5948,
      "throw": 5949,
      "stone": 5950,
      "strong": 5951,
      "strel": 5952,
      "Ġthra": 5953,
      "Ġthres": 5954,
      "Ġthrees": 5955,
      "Ġthorough": 5956,
      "Ġnoses": 5957,
      "ang": 5958,
      "ancy": 5959,
      "vered": 5960,
      "Ġwid": 5961,
      "Ġwilful": 5962,
      "Ġhaw": 5963,
      "Ġhalt": 5964,
      "Ġhallow": 5965,
      "Ġbeet": 5966,
      "Ġbeads": 5967,
      "Ġhigher": 5968,
      "Ġinve": 5969,
      "Ġinca": 5970,
      "atri": 5971,
      "rion": 5972,
      "rial": 5973,
      "ediment": 5974,
      "etition": 5975,
      "Ġforces": 5976,
      "Ġfornic": 5977,
      "Ġweed": 5978,
      "Ġweal": 5979,
      "Ġmeas": 5980,
      "Ġmellow": 5981,
      "Ġech": 5982,
      "Ġelo": 5983,
      "Ġebb": 5984,
      "Ġhoo": 5985,
      "Ġhook": 5986,
      "Ġnotes": 5987,
      "Ġnotorious": 5988,
      "Ġnotwith": 5989,
      "entious": 5990,
      "itable": 5991,
      "ourage": 5992,
      "ross": 5993,
      "Ġstea": 5994,
      "Ġstem": 5995,
      "Ġstub": 5996,
      "Ġassemb": 5997,
      "isher": 5998,
      "isome": 5999,
      "Ġsolic": 6000,
      "Ġrele": 6001,
      "Ġrender": 6002,
      "Ġrelish": 6003,
      "Ġrelig": 6004,
      "Ġliar": 6005,
      "Ġliqu": 6006,
      "ado": 6007,
      "adem": 6008,
      "adise": 6009,
      "Ġvine": 6010,
      "Ġvig": 6011,
      "Ġvices": 6012,
      "raught": 6013,
      "rails": 6014,
      "Ġdol": 6015,
      "Ġdoves": 6016,
      "Ġdoors": 6017,
      "iders": 6018,
      "Ġmoan": 6019,
      "Ġmocking": 6020,
      "Ġshamed": 6021,
      "rup": 6022,
      "Ġsear": 6023,
      "Ġsequ": 6024,
      "ainty": 6025,
      "liver": 6026,
      "Ġallies": 6027,
      "Ġwhet": 6028,
      "Ġwheel": 6029,
      "Ġherbs": 6030,
      "Ġhercul": 6031,
      "Ġsued": 6032,
      "Ġsung": 6033,
      "Ġsunder": 6034,
      "Ġsugar": 6035,
      "vering": 6036,
      "verse": 6037,
      "Ġloins": 6038,
      "Ġlodow": 6039,
      "Ġlocks": 6040,
      "Ġfaction": 6041,
      "Ġmale": 6042,
      "Ġmagic": 6043,
      "quet": 6044,
      "quity": 6045,
      "Ġspar": 6046,
      "Ġsped": 6047,
      "Ġspurn": 6048,
      "Ġspices": 6049,
      "Ġspilt": 6050,
      "Ġspiders": 6051,
      "Ġwhistle": 6052,
      "Ġshower": 6053,
      "Ġripen": 6054,
      "Ġrising": 6055,
      "Ġrites": 6056,
      "Ġcave": 6057,
      "Ġcaused": 6058,
      "Ġbox": 6059,
      "Ġboon": 6060,
      "Ġknit": 6061,
      "Ġknigh": 6062,
      "Ġjade": 6063,
      "illed": 6064,
      "terate": 6065,
      "feits": 6066,
      "Ġunman": 6067,
      "Ġunsw": 6068,
      "Ġunrest": 6069,
      "Ġshelter": 6070,
      "Ġthereon": 6071,
      "Ġmarr": 6072,
      "Ġmarble": 6073,
      "Ġmum": 6074,
      "Ġmuff": 6075,
      "Ġpran": 6076,
      "Ġprint": 6077,
      "Ġorphan": 6078,
      "Ġdefect": 6079,
      "Ġquaint": 6080,
      "Ġquake": 6081,
      "melt": 6082,
      "Ġamity": 6083,
      "Ġwasp": 6084,
      "Ġhowl": 6085,
      "Ġsayest": 6086,
      "Ġtax": 6087,
      "ressed": 6088,
      "icial": 6089,
      "Ġblade": 6090,
      "olar": 6091,
      "Ġpox": 6092,
      "Ġpocket": 6093,
      "Ġwhoever": 6094,
      "urer": 6095,
      "Ġarbit": 6096,
      "Ġknowest": 6097,
      "pper": 6098,
      "ppet": 6099,
      "Ġusing": 6100,
      "Ġwarn": 6101,
      "Ġwarning": 6102,
      "uned": 6103,
      "ums": 6104,
      "uments": 6105,
      "Ġgreece": 6106,
      "Ġhop": 6107,
      "Ġholl": 6108,
      "Ġhole": 6109,
      "Ġenfran": 6110,
      "Ġsaucy": 6111,
      "Ġmadly": 6112,
      "Ġmadman": 6113,
      "Ġmusty": 6114,
      "Ġtruer": 6115,
      "Ġqueens": 6116,
      "peci": 6117,
      "Ġbail": 6118,
      "Ġbache": 6119,
      "Ġbagg": 6120,
      "Ġgraft": 6121,
      "Ġglories": 6122,
      "inder": 6123,
      "ptory": 6124,
      "Ġtim": 6125,
      "Ġtire": 6126,
      "Ġlevy": 6127,
      "Ġlecher": 6128,
      "Ġbroad": 6129,
      "Ġdislo": 6130,
      "fulness": 6131,
      "ffic": 6132,
      "Ġgentler": 6133,
      "ounce": 6134,
      "emper": 6135,
      "love": 6136,
      "Ġabst": 6137,
      "Ġabbot": 6138,
      "Ġlooker": 6139,
      "Ġexperience": 6140,
      "Ġalto": 6141,
      "Ġaloof": 6142,
      "ouched": 6143,
      "Ġheap": 6144,
      "Ġhears": 6145,
      "Ġrocks": 6146,
      "Ġroyally": 6147,
      "Ġtimeless": 6148,
      "Ġlace": 6149,
      "Ġplate": 6150,
      "Ġearldom": 6151,
      "Ġluke": 6152,
      "Ġladyship": 6153,
      "Ġawry": 6154,
      "Ġparent": 6155,
      "irect": 6156,
      "Ġbreeding": 6157,
      "Ġbudge": 6158,
      "Ġflore": 6159,
      "Ġflame": 6160,
      "Ġprays": 6161,
      "fts": 6162,
      "fty": 6163,
      "Ġjocund": 6164,
      "Ġrages": 6165,
      "Ġraging": 6166,
      "Ġraiment": 6167,
      "Ġsweets": 6168,
      "mph": 6169,
      "mpet": 6170,
      "Ġfoil": 6171,
      "Ġpreced": 6172,
      "Ġprerog": 6173,
      "Ġpledge": 6174,
      "cheth": 6175,
      "Ġpartake": 6176,
      "Ġscour": 6177,
      "Ġscal": 6178,
      "Ġscars": 6179,
      "Ġchival": 6180,
      "Ġcob": 6181,
      "Ġcoz": 6182,
      "Ġcoal": 6183,
      "Ġcoals": 6184,
      "allel": 6185,
      "Ġwayward": 6186,
      "Ġheadstrong": 6187,
      "Ġapply": 6188,
      "Ġappell": 6189,
      "Ġappla": 6190,
      "Ġappoint": 6191,
      "Ġcontain": 6192,
      "Ġcontem": 6193,
      "Ġafoot": 6194,
      "Ġreproof": 6195,
      "Ġreplied": 6196,
      "Ġrepossess": 6197,
      "Ġrepetition": 6198,
      "Ġconsort": 6199,
      "Ġconsumed": 6200,
      "Ġcaparison": 6201,
      "Ġlongest": 6202,
      "Ġclub": 6203,
      "shining": 6204,
      "ritable": 6205,
      "ritories": 6206,
      "Ġshowers": 6207,
      "Ġgap": 6208,
      "Ġgait": 6209,
      "Ġgaol": 6210,
      "Ġgape": 6211,
      "Ġperem": 6212,
      "Ġtried": 6213,
      "Ġtrimm": 6214,
      "Ġmistaking": 6215,
      "Ġresort": 6216,
      "Ġcomposition": 6217,
      "Ġpeaceful": 6218,
      "Ġbrass": 6219,
      "Ġentire": 6220,
      "Ġentrails": 6221,
      "Ġbeseem": 6222,
      "Ġhourly": 6223,
      "Ġhatch": 6224,
      "Ġsubm": 6225,
      "Ġsubsc": 6226,
      "Ġelsewhere": 6227,
      "Ġchaf": 6228,
      "Ġchains": 6229,
      "Ġcurt": 6230,
      "Ġcurtain": 6231,
      "Ġtragic": 6232,
      "Ġindif": 6233,
      "Ġindirect": 6234,
      "Ġwelcomes": 6235,
      "Ġbackward": 6236,
      "Ġtreas": 6237,
      "Ġhush": 6238,
      "Ġneedle": 6239,
      "Ġneedless": 6240,
      "Ġconfer": 6241,
      "Ġconfines": 6242,
      "Ġpardons": 6243,
      "Ġhighway": 6244,
      "Ġbrist": 6245,
      "Ġbribe": 6246,
      "Ġvolume": 6247,
      "Ġundergo": 6248,
      "Ġunderneath": 6249,
      "Ġimpart": 6250,
      "Ġimpud": 6251,
      "Ġimpression": 6252,
      "Ġimpediment": 6253,
      "Ġbanquet": 6254,
      "Ġbush": 6255,
      "Ġhusbands": 6256,
      "Ġespeci": 6257,
      "Ġchanges": 6258,
      "Ġnatures": 6259,
      "Ġfortunate": 6260,
      "Ġminded": 6261,
      "Ġcounted": 6262,
      "Ġfarm": 6263,
      "Ġdoubly": 6264,
      "Ġlightly": 6265,
      "Ġlightness": 6266,
      "thens": 6267,
      "Ġturning": 6268,
      "Ġturned": 6269,
      "Ġdevice": 6270,
      "Ġobst": 6271,
      "Ġobtain": 6272,
      "Ġdiet": 6273,
      "Ġdiadem": 6274,
      "Ġkilling": 6275,
      "Ġkilled": 6276,
      "Ġmarrying": 6277,
      "versy": 6278,
      "Ġsigns": 6279,
      "Ġantic": 6280,
      "Ġsunshine": 6281,
      "Ġcomforts": 6282,
      "Ġcomfortable": 6283,
      "Ġattent": 6284,
      "Ġattain": 6285,
      "Ġattach": 6286,
      "Ġvillany": 6287,
      "Ġsleeps": 6288,
      "Ġsleepy": 6289,
      "Ġvalue": 6290,
      "Ġinstead": 6291,
      "Ġdispro": 6292,
      "Ġdispose": 6293,
      "Ġassault": 6294,
      "Ġslack": 6295,
      "Ġdelivered": 6296,
      "holds": 6297,
      "Ġfighting": 6298,
      "Ġcommanding": 6299,
      "Ġgetting": 6300,
      "Ġwishing": 6301,
      "Ġprisoners": 6302,
      "Ġtrades": 6303,
      "Ġdangers": 6304,
      "Ġcram": 6305,
      "Ġsuppli": 6306,
      "Ġstreet": 6307,
      "Ġstrait": 6308,
      "Ġpromot": 6309,
      "enerate": 6310,
      "umny": 6311,
      "Ġkissing": 6312,
      "Ġsisterhood": 6313,
      "Ġdenial": 6314,
      "Ġfits": 6315,
      "Ġfitted": 6316,
      "Ġinconstant": 6317,
      "Ġdiscords": 6318,
      "Ġwoeful": 6319,
      "Ġreturned": 6320,
      "Ġrequit": 6321,
      "Ġrequite": 6322,
      "Ġrequired": 6323,
      "Ġtenderly": 6324,
      "Ġgreyh": 6325,
      "Ġwidows": 6326,
      "Ġdeeper": 6327,
      "Ġdeeply": 6328,
      "Ġcoldly": 6329,
      "Ġsimp": 6330,
      "Ġsilken": 6331,
      "Ġfootman": 6332,
      "Ġminstrel": 6333,
      "Ġplucks": 6334,
      "Ġpastime": 6335,
      "upon": 6336,
      "Ġinfir": 6337,
      "Ġinfring": 6338,
      "Ġprofits": 6339,
      "Ġstrongly": 6340,
      "Ġfasting": 6341,
      "Ġdivide": 6342,
      "Ġdivines": 6343,
      "Ġdivision": 6344,
      "Ġresolute": 6345,
      "tered": 6346,
      "Ġpossessed": 6347,
      "Ġtribune": 6348,
      "Ġtribute": 6349,
      "Ġmurdering": 6350,
      "Ġaccent": 6351,
      "Ġforest": 6352,
      "Ġforerun": 6353,
      "Ġcalais": 6354,
      "Ġcalumny": 6355,
      "Ġnobler": 6356,
      "Ġcounsels": 6357,
      "Ġplaints": 6358,
      "Ġpreposter": 6359,
      "Ġdistressed": 6360,
      "Ġshorten": 6361,
      "Ġterrible": 6362,
      "Ġterritories": 6363,
      "Ġstirr": 6364,
      "Ġstirs": 6365,
      "Ġstirring": 6366,
      "Ġbreathes": 6367,
      "Ġharmless": 6368,
      "Ġcros": 6369,
      "Ġpraised": 6370,
      "Ġactor": 6371,
      "Ġdireful": 6372,
      "Ġcheerfully": 6373,
      "Ġmockery": 6374,
      "Ġrats": 6375,
      "Ġembra": 6376,
      "Ġembraced": 6377,
      "Ġregiment": 6378,
      "Ġpoisonous": 6379,
      "Ġmalign": 6380,
      "Ġmalicious": 6381,
      "Ġwisest": 6382,
      "Ġsuccor": 6383,
      "gnant": 6384,
      "Ġpays": 6385,
      "Ġblessings": 6386,
      "Ġpenny": 6387,
      "Ġinterchange": 6388,
      "Ġencourage": 6389,
      "Ġvictorious": 6390,
      "Ġbleed": 6391,
      "Ġbleeds": 6392,
      "Ġopposed": 6393,
      "Ġwitnesses": 6394,
      "voided": 6395,
      "Ġfills": 6396,
      "Ġeating": 6397,
      "Ġrebel": 6398,
      "Ġworshipful": 6399,
      "Ġclosely": 6400,
      "nsion": 6401,
      "Ġchamberlain": 6402,
      "Ġhurried": 6403,
      "Ġscarlet": 6404,
      "Ġcowardice": 6405,
      "Ġwaken": 6406,
      "Ġtorments": 6407,
      "Ġcreated": 6408,
      "Ġcreatures": 6409,
      "Ġbeastly": 6410,
      "Ġhideous": 6411,
      "Ġinjuries": 6412,
      "Ġstrumpet": 6413,
      "Ġcaptive": 6414,
      "Ġrancour": 6415,
      "Ġgrandfather": 6416,
      "Ġblister": 6417,
      "Ġfamish": 6418,
      "Ġcomplot": 6419,
      "Ġextremest": 6420,
      "ival": 6421,
      "Ġsolely": 6422,
      "Ġgovernor": 6423,
      "Ġunple": 6424,
      "Ġdecay": 6425,
      "Ġadded": 6426,
      "Ġmutiny": 6427,
      "Ġsixth": 6428,
      "Ġscholar": 6429,
      "Ġlends": 6430,
      "Ġunfit": 6431,
      "Ġlustful": 6432,
      "Ġdrunkard": 6433,
      "Ġtarqu": 6434,
      "Ġthreats": 6435,
      "Ġsafer": 6436,
      "Ġcounterpo": 6437,
      "Ġconditions": 6438,
      "lected": 6439,
      "Ġcontrad": 6440,
      "Ġcapital": 6441,
      "Ġunderstanding": 6442,
      "Ġremedies": 6443,
      "Ġpersuasion": 6444,
      "Ġscarcely": 6445,
      "Ġtriumphs": 6446,
      "Ġmourning": 6447,
      "Ġnapkin": 6448,
      "Ġbodes": 6449,
      "Ġunborn": 6450,
      "Ġdegrees": 6451,
      "Ġgreetings": 6452,
      "Ġinclination": 6453,
      "Ġdemands": 6454,
      "piring": 6455,
      "Ġfaintly": 6456,
      "Ġcreate": 6457,
      "Ġdwells": 6458,
      "Ġthroats": 6459,
      "Ġmiseries": 6460,
      "Ġassistance": 6461,
      "Ġfeeding": 6462,
      "Ġbefal": 6463,
      "Ġbefits": 6464,
      "Ġholid": 6465,
      "Ġstooping": 6466,
      "Ġbutchers": 6467,
      "Ġshriek": 6468,
      "Ġnecessary": 6469,
      "Ġfirmly": 6470,
      "Ġcourageous": 6471,
      "Ġschoolmaster": 6472,
      "Ġfruitful": 6473,
      "Ġclimb": 6474,
      "Ġfrighted": 6475,
      "Ġimportune": 6476,
      "Ġutterance": 6477,
      "Ġlengthen": 6478,
      "naw": 6479,
      "Ġlouder": 6480,
      "Ġdoricles": 6481,
      "Ġpronounced": 6482,
      "Ġargos": 6483,
      "Ġheaviness": 6484,
      "Ġpreserved": 6485,
      "Ġtreachery": 6486,
      "Ġdelights": 6487,
      "Ġaediles": 6488,
      "Ġsyll": 6489,
      "Ġwonders": 6490,
      "Ġblast": 6491,
      "Ġphysician": 6492,
      "Ġrewards": 6493,
      "Ġlimits": 6494,
      "Ġbondage": 6495,
      "Ġjealousies": 6496,
      "Ġambition": 6497,
      "Ġrascals": 6498,
      "Ġtemperance": 6499,
      "Ġwales": 6500,
      "Ġbaseness": 6501,
      "Ġbeware": 6502,
      "Ġweighty": 6503,
      "ligent": 6504,
      "Ġsupreme": 6505,
      "Ġproduce": 6506,
      "Ġadmir": 6507,
      "Ġpenitence": 6508,
      "Ġsolemnity": 6509,
      "Ġpublicly": 6510,
      "Ġmillions": 6511,
      "Ġdigest": 6512,
      "Ġpuppet": 6513,
      "Ġcombat": 6514,
      "Ġadmitted": 6515,
      "Ġapprehension": 6516,
      "Ġcholeric": 6517,
      "Ġtrembles": 6518,
      "Ġhazel": 6519,
      "Ġknightly": 6520,
      "Ġmerrily": 6521,
      "Ġmerriment": 6522,
      "Ġantiates": 6523,
      "Ġlungs": 6524,
      "Ġphilip": 6525,
      "Ġthorns": 6526,
      "Ġdischarged": 6527,
      "Ġcorrect": 6528,
      "Ġbeguile": 6529,
      "Ġbeguiled": 6530,
      "Ġbrawl": 6531,
      "Ġbrawling": 6532,
      "Ġwitchcra": 6533,
      "Ġchastity": 6534,
      "Ġinferior": 6535,
      "Ġcircumstances": 6536,
      "Ġworthily": 6537,
      "Ġachieved": 6538,
      "Ġwinged": 6539,
      "Ġfunction": 6540,
      "Ġnearer": 6541,
      "Ġevents": 6542,
      "Ġreceives": 6543,
      "Ġdebase": 6544,
      "Ġposterity": 6545,
      "Ġcontroversy": 6546,
      "Ġdifference": 6547,
      "Ġprodigal": 6548,
      "Ġaccomplish": 6549,
      "mongst": 6550,
      "witted": 6551,
      "Ġidly": 6552,
      "Ġlatest": 6553,
      "Ġhorror": 6554,
      "Ġuneven": 6555,
      "Ġdisguised": 6556,
      "Ġcouncil": 6557,
      "Ġcouncils": 6558,
      "Ġscolding": 6559,
      "Ġtransported": 6560,
      "Ġimpatience": 6561,
      "Ġimpatient": 6562,
      "Ġbeautiful": 6563,
      "Ġamazement": 6564,
      "Ġpainting": 6565,
      "Ġhaughty": 6566,
      "Ġhomage": 6567,
      "Ġanchor": 6568,
      "Ġunfeigned": 6569,
      "Ġappeared": 6570,
      "Ġrestraint": 6571,
      "Ġbestride": 6572,
      "Ġbankrupt": 6573,
      "Ġdragon": 6574,
      "Ġexpedition": 6575,
      "Ġinsolence": 6576,
      "Ġconcluded": 6577,
      "Ġcentre": 6578,
      "Ġdarken": 6579,
      "Ġpicture": 6580,
      "Ġgainsay": 6581,
      "Ġissued": 6582,
      "Ġsociety": 6583,
      "Ġunlawful": 6584,
      "Ġswoon": 6585,
      "Ġlecture": 6586,
      "Ġragged": 6587,
      "Ġfollies": 6588,
      "Ġscape": 6589,
      "Ġrumour": 6590,
      "Ġrestored": 6591,
      "Ġsmiling": 6592,
      "Ġwelshmen": 6593,
      "Ġdivorce": 6594,
      "Ġskulls": 6595,
      "Ġimperial": 6596,
      "Ġimmediately": 6597,
      "Ġtestimony": 6598,
      "Ġreckoning": 6599,
      "ebus": 6600,
      "Ġsands": 6601,
      "Ġcordial": 6602,
      "Ġpupil": 6603,
      "Ġphoebus": 6604,
      "Ġugly": 6605,
      "Ġashore": 6606,
      "Ġbutterf": 6607,
      "Ġvulgar": 6608,
      "Ġvassal": 6609,
      "Ġconvenient": 6610,
      "Ġcanopy": 6611,
      "Ġdisobed": 6612,
      "Ġscurvy": 6613,
      "Ġnightingale": 6614,
      "Ġreprieve": 6615,
      "Ġdistinguish": 6616,
      "Ġtroublous": 6617,
      "Ġrebuke": 6618,
      "Ġmedicine": 6619,
      "whelm": 6620,
      "Ġpuissant": 6621,
      "Ġadvertised": 6622,
      "Ġchastisement": 6623,
      "Ġacknowledge": 6624,
      "Ġpestilence": 6625,
      "bearer": 6626,
      "glass": 6627,
      "Ġwestern": 6628,
      "Ġwrangling": 6629,
      "Ġmounting": 6630,
      "Ġfestival": 6631,
      "Ġfarthest": 6632,
      "Ġfemale": 6633,
      "Ġcuckold": 6634,
      "Ġprunes": 6635,
      "Ġphaethon": 6636,
      "Ġhector": 6637,
      "Ġincapable": 6638,
      "Ġeloqu": 6639,
      "Ġnotwithstanding": 6640,
      "Ġsolicit": 6641,
      "Ġvineyard": 6642,
      "Ġhercules": 6643,
      "Ġlodowick": 6644,
      "Ġknighthood": 6645,
      "Ġenfranchi": 6646,
      "Ġbachelor": 6647,
      "Ġbaggage": 6648,
      "Ġaltogether": 6649,
      "Ġprecedent": 6650,
      "Ġprerogative": 6651,
      "Ġperemptory": 6652,
      "Ġsubscri": 6653,
      "Ġindifferent": 6654,
      "Ġespecially": 6655,
      "Ġpreposterous": 6656,
      "Ġwitchcraft": 6657,
      "'!": 6658,
      "'--": 6659,
      "aper": 6660,
      "aced": 6661,
      "ainder": 6662,
      "bu": 6663,
      "bon": 6664,
      "bat": 6665,
      "bri": 6666,
      "book": 6667,
      "bies": 6668,
      "bred": 6669,
      "bric": 6670,
      "brain": 6671,
      "cu": 6672,
      "cre": 6673,
      "cit": 6674,
      "cats": 6675,
      "content": 6676,
      "dent": 6677,
      "dro": 6678,
      "dis": 6679,
      "dur": 6680,
      "ddy": 6681,
      "dler": 6682,
      "dict": 6683,
      "death": 6684,
      "dlow": 6685,
      "ele": 6686,
      "ech": 6687,
      "eress": 6688,
      "fast": 6689,
      "fare": 6690,
      "fied": 6691,
      "gom": 6692,
      "gea": 6693,
      "gone": 6694,
      "give": 6695,
      "gress": 6696,
      "gia": 6697,
      "gging": 6698,
      "greed": 6699,
      "ghest": 6700,
      "hoop": 6701,
      "ipt": 6702,
      "iction": 6703,
      "iable": 6704,
      "iries": 6705,
      "iquity": 6706,
      "journ": 6707,
      "lous": 6708,
      "lant": 6709,
      "lore": 6710,
      "lorn": 6711,
      "mand": 6712,
      "mary": 6713,
      "music": 6714,
      "minous": 6715,
      "ned": 6716,
      "nut": 6717,
      "nit": 6718,
      "ois": 6719,
      "par": 6720,
      "pan": 6721,
      "pter": 6722,
      "pla": 6723,
      "pence": 6724,
      "press": 6725,
      "pray": 6726,
      "proud": 6727,
      "piece": 6728,
      "rates": 6729,
      "sch": 6730,
      "sant": 6731,
      "song": 6732,
      "sick": 6733,
      "sign": 6734,
      "soul": 6735,
      "sia": 6736,
      "scaped": 6737,
      "test": 6738,
      "tling": 6739,
      "tree": 6740,
      "take": 6741,
      "tsey": 6742,
      "terest": 6743,
      "uch": 6744,
      "uro": 6745,
      "uble": 6746,
      "urity": 6747,
      "ugg": 6748,
      "uiced": 6749,
      "vion": 6750,
      "vice": 6751,
      "vity": 6752,
      "vious": 6753,
      "wom": 6754,
      "wid": 6755,
      "ween": 6756,
      "wind": 6757,
      "why": 6758,
      "wench": 6759,
      "worth": 6760,
      "wares": 6761,
      "ymph": 6762,
      "zes": 6763,
      "zine": 6764,
      "Ġ&": 6765,
      "Ġet": 6766,
      "Ġtum": 6767,
      "Ġtick": 6768,
      "Ġtatter": 6769,
      "Ġtunes": 6770,
      "Ġtides": 6771,
      "Ġteeming": 6772,
      "Ġtumbling": 6773,
      "hear": 6774,
      "heth": 6775,
      "heathe": 6776,
      "Ġaqu": 6777,
      "Ġaery": 6778,
      "Ġaches": 6779,
      "Ġsou": 6780,
      "Ġsurn": 6781,
      "Ġsongs": 6782,
      "Ġsmelt": 6783,
      "Ġware": 6784,
      "Ġwrench": 6785,
      "Ġwaning": 6786,
      "Ġirish": 6787,
      "Ġibat": 6788,
      "ouri": 6789,
      "oused": 6790,
      "Ġming": 6791,
      "Ġmort": 6792,
      "Ġmute": 6793,
      "Ġbone": 6794,
      "Ġbun": 6795,
      "Ġbind": 6796,
      "Ġbide": 6797,
      "Ġbatter": 6798,
      "Ġbier": 6799,
      "Ġbash": 6800,
      "hall": 6801,
      "rep": 6802,
      "reef": 6803,
      "reach": 6804,
      "reement": 6805,
      "nders": 6806,
      "inet": 6807,
      "inance": 6808,
      "inty": 6809,
      "inite": 6810,
      "Ġfen": 6811,
      "Ġfed": 6812,
      "Ġfut": 6813,
      "Ġfli": 6814,
      "Ġfence": 6815,
      "Ġfester": 6816,
      "Ġfert": 6817,
      "Ġfile": 6818,
      "Ġfowl": 6819,
      "Ġfickle": 6820,
      "Ġced": 6821,
      "Ġcas": 6822,
      "Ġcool": 6823,
      "Ġcats": 6824,
      "Ġcuff": 6825,
      "Ġcele": 6826,
      "Ġost": 6827,
      "Ġoce": 6828,
      "Ġominous": 6829,
      "erp": 6830,
      "erman": 6831,
      "erwhelm": 6832,
      "Ġlas": 6833,
      "Ġlain": 6834,
      "Ġlame": 6835,
      "Ġlass": 6836,
      "Ġdir": 6837,
      "Ġdart": 6838,
      "Ġdight": 6839,
      "Ġdive": 6840,
      "Ġdick": 6841,
      "Ġdastard": 6842,
      "Ġduteous": 6843,
      "Ġdainty": 6844,
      "Ġni": 6845,
      "Ġnun": 6846,
      "Ġnerves": 6847,
      "Ġniece": 6848,
      "Ġnymph": 6849,
      "Ġninet": 6850,
      "hill": 6851,
      "Ġyard": 6852,
      "Ġyellow": 6853,
      "ennel": 6854,
      "Ġphe": 6855,
      "Ġpir": 6856,
      "Ġpoo": 6857,
      "Ġpry": 6858,
      "Ġpul": 6859,
      "Ġpens": 6860,
      "Ġpins": 6861,
      "Ġpith": 6862,
      "Ġpines": 6863,
      "Ġpiled": 6864,
      "Ġtoss": 6865,
      "Ġtoys": 6866,
      "arated": 6867,
      "Ġhew": 6868,
      "Ġheal": 6869,
      "once": 6870,
      "Ġgn": 6871,
      "Ġgay": 6872,
      "Ġgear": 6873,
      "Ġgorge": 6874,
      "Ġginger": 6875,
      "Ġgilt": 6876,
      "Ġgnaw": 6877,
      "thom": 6878,
      "thus": 6879,
      "thren": 6880,
      "inged": 6881,
      "stly": 6882,
      "stood": 6883,
      "stain": 6884,
      "sters": 6885,
      "Ġthwart": 6886,
      "Ġthreef": 6887,
      "ange": 6888,
      "anous": 6889,
      "omfort": 6890,
      "Ġhab": 6891,
      "Ġhan": 6892,
      "Ġhaven": 6893,
      "Ġbecom": 6894,
      "sec": 6895,
      "seem": 6896,
      "Ġhilt": 6897,
      "Ġhighest": 6898,
      "Ġinhabit": 6899,
      "Ġiniquity": 6900,
      "ato": 6901,
      "aty": 6902,
      "atory": 6903,
      "atiate": 6904,
      "lehill": 6905,
      "Ġforms": 6906,
      "Ġforrest": 6907,
      "Ġforlorn": 6908,
      "uto": 6909,
      "utches": 6910,
      "Ġkeen": 6911,
      "Ġkern": 6912,
      "Ġkennel": 6913,
      "Ġissues": 6914,
      "Ġweb": 6915,
      "usc": 6916,
      "using": 6917,
      "usale": 6918,
      "usual": 6919,
      "uspic": 6920,
      "ussia": 6921,
      "Ġeg": 6922,
      "Ġew": 6923,
      "Ġeaster": 6924,
      "Ġegg": 6925,
      "Ġelected": 6926,
      "Ġeuro": 6927,
      "Ġhint": 6928,
      "Ġhounds": 6929,
      "ools": 6930,
      "ently": 6931,
      "roll": 6932,
      "rolled": 6933,
      "Ġuly": 6934,
      "Ġsty": 6935,
      "Ġstage": 6936,
      "Ġstall": 6937,
      "Ġstif": 6938,
      "Ġstuck": 6939,
      "Ġstray": 6940,
      "Ġsteter": 6941,
      "Ġstring": 6942,
      "Ġstony": 6943,
      "Ġstarts": 6944,
      "Ġstrat": 6945,
      "Ġassemble": 6946,
      "Ġaspiring": 6947,
      "isons": 6948,
      "Ġbutche": 6949,
      "Ġsoar": 6950,
      "Ġsober": 6951,
      "Ġsolace": 6952,
      "Ġren": 6953,
      "Ġrevers": 6954,
      "Ġrevo": 6955,
      "Ġrevell": 6956,
      "Ġrent": 6957,
      "Ġrehear": 6958,
      "Ġliars": 6959,
      "Ġvio": 6960,
      "Ġvest": 6961,
      "Ġvap": 6962,
      "Ġvail": 6963,
      "iod": 6964,
      "raign": 6965,
      "alas": 6966,
      "alty": 6967,
      "Ġdot": 6968,
      "Ġdoit": 6969,
      "Ġdoings": 6970,
      "Ġdoting": 6971,
      "Ġdoleful": 6972,
      "asing": 6973,
      "asite": 6974,
      "ashy": 6975,
      "ckets": 6976,
      "esters": 6977,
      "Ġwhatever": 6978,
      "uring": 6979,
      "urous": 6980,
      "urbs": 6981,
      "Ġmot": 6982,
      "Ġmoans": 6983,
      "Ġmolehill": 6984,
      "Ġanno": 6985,
      "Ġangu": 6986,
      "Ġshamest": 6987,
      "rung": 6988,
      "Ġsex": 6989,
      "Ġselves": 6990,
      "ami": 6991,
      "amine": 6992,
      "livion": 6993,
      "geon": 6994,
      "geth": 6995,
      "geia": 6996,
      "arded": 6997,
      "anders": 6998,
      "Ġwheres": 6999,
      "Ġwheels": 7000,
      "Ġgoest": 7001,
      "Ġherds": 7002,
      "Ġherbert": 7003,
      "Ġsum": 7004,
      "Ġsues": 7005,
      "Ġsulph": 7006,
      "Ġfaster": 7007,
      "Ġfails": 7008,
      "Ġfabric": 7009,
      "Ġfairies": 7010,
      "Ġfathom": 7011,
      "Ġmab": 7012,
      "Ġmap": 7013,
      "quiet": 7014,
      "Ġspan": 7015,
      "Ġspear": 7016,
      "Ġspell": 7017,
      "Ġspies": 7018,
      "Ġspee": 7019,
      "Ġspace": 7020,
      "Ġsprites": 7021,
      "ellows": 7022,
      "Ġshock": 7023,
      "Ġshouts": 7024,
      "Ġrip": 7025,
      "Ġrice": 7026,
      "Ġribb": 7027,
      "Ġcaus": 7028,
      "Ġrood": 7029,
      "Ġrings": 7030,
      "Ġrates": 7031,
      "Ġrussia": 7032,
      "Ġknell": 7033,
      "Ġgoodman": 7034,
      "Ġjar": 7035,
      "Ġjames": 7036,
      "Ġupper": 7037,
      "ills": 7038,
      "ternal": 7039,
      "feren": 7040,
      "femin": 7041,
      "Ġunh": 7042,
      "Ġunpe": 7043,
      "Ġunity": 7044,
      "Ġunlo": 7045,
      "Ġunsp": 7046,
      "Ġungovern": 7047,
      "Ġunivers": 7048,
      "Ġunthri": 7049,
      "Ġunusual": 7050,
      "Ġsheets": 7051,
      "Ġdug": 7052,
      "Ġdun": 7053,
      "Ġducats": 7054,
      "Ġatone": 7055,
      "Ġmuse": 7056,
      "Ġmuddy": 7057,
      "Ġorchard": 7058,
      "Ġdelph": 7059,
      "antial": 7060,
      "ulation": 7061,
      "Ġquest": 7062,
      "Ġcony": 7063,
      "Ġconver": 7064,
      "Ġconvers": 7065,
      "Ġconvent": 7066,
      "meth": 7067,
      "Ġmanly": 7068,
      "Ġmangled": 7069,
      "Ġmanacles": 7070,
      "Ġmankind": 7071,
      "ilis": 7072,
      "Ġprover": 7073,
      "Ġproff": 7074,
      "Ġprote": 7075,
      "Ġcance": 7076,
      "Ġcannib": 7077,
      "Ġhowe": 7078,
      "Ġdealing": 7079,
      "vener": 7080,
      "Ġtaunt": 7081,
      "resseth": 7082,
      "Ġseemeth": 7083,
      "Ġswine": 7084,
      "Ġswim": 7085,
      "Ġswif": 7086,
      "Ġswarm": 7087,
      "icing": 7088,
      "icester": 7089,
      "icide": 7090,
      "Ġbloss": 7091,
      "Ġblasp": 7092,
      "oln": 7093,
      "ersha": 7094,
      "Ġpoll": 7095,
      "Ġpotion": 7096,
      "Ġusage": 7097,
      "Ġusurer": 7098,
      "Ġwary": 7099,
      "ung": 7100,
      "Ġwhereby": 7101,
      "Ġwhereupon": 7102,
      "umes": 7103,
      "Ġgreed": 7104,
      "Ġgreets": 7105,
      "endom": 7106,
      "Ġhoped": 7107,
      "Ġhoping": 7108,
      "Ġworships": 7109,
      "ists": 7110,
      "Ġensue": 7111,
      "Ġencom": 7112,
      "Ġensu": 7113,
      "Ġsaving": 7114,
      "Ġsails": 7115,
      "Ġagony": 7116,
      "Ġagreement": 7117,
      "Ġtrudge": 7118,
      "igation": 7119,
      "Ġbait": 7120,
      "Ġbauble": 7121,
      "Ġgramer": 7122,
      "Ġglove": 7123,
      "Ġsomebo": 7124,
      "Ġedict": 7125,
      "pture": 7126,
      "Ġtiber": 7127,
      "Ġjule": 7128,
      "Ġlevied": 7129,
      "Ġbroach": 7130,
      "Ġbroils": 7131,
      "Ġdisb": 7132,
      "Ġdisci": 7133,
      "Ġdishes": 7134,
      "Ġdislike": 7135,
      "Ġoutst": 7136,
      "Ġgentry": 7137,
      "emp": 7138,
      "Ġbrine": 7139,
      "locks": 7140,
      "Ġabate": 7141,
      "Ġabides": 7142,
      "Ġability": 7143,
      "Ġabuses": 7144,
      "areth": 7145,
      "Ġexha": 7146,
      "Ġexamine": 7147,
      "Ġexternal": 7148,
      "Ġtellus": 7149,
      "ouches": 7150,
      "Ġhandle": 7151,
      "Ġhandker": 7152,
      "sses": 7153,
      "Ġleader": 7154,
      "Ġcorners": 7155,
      "Ġhearth": 7156,
      "cible": 7157,
      "civious": 7158,
      "Ġrod": 7159,
      "Ġroad": 7160,
      "Ġrope": 7161,
      "Ġrogues": 7162,
      "Ġlaughter": 7163,
      "Ġlacks": 7164,
      "Ġlazy": 7165,
      "Ġplent": 7166,
      "Ġplough": 7167,
      "Ġplashy": 7168,
      "Ġthinkest": 7169,
      "Ġludlow": 7170,
      "tock": 7171,
      "Ġawe": 7172,
      "Ġawful": 7173,
      "bery": 7174,
      "bering": 7175,
      "Ġclap": 7176,
      "Ġbrethren": 7177,
      "Ġdesol": 7178,
      "Ġdaylight": 7179,
      "Ġperused": 7180,
      "Ġperadventure": 7181,
      "Ġperiod": 7182,
      "Ġpricks": 7183,
      "peror": 7184,
      "peration": 7185,
      "Ġarticles": 7186,
      "Ġarticle": 7187,
      "Ġbuilt": 7188,
      "Ġbustle": 7189,
      "Ġburial": 7190,
      "Ġflayed": 7191,
      "Ġflinty": 7192,
      "Ġfearless": 7193,
      "Ġadam": 7194,
      "Ġadul": 7195,
      "Ġadorn": 7196,
      "Ġadult": 7197,
      "Ġadder": 7198,
      "Ġcalling": 7199,
      "tybalt": 7200,
      "Ġsecurity": 7201,
      "Ġgreatly": 7202,
      "agems": 7203,
      "Ġram": 7204,
      "Ġraw": 7205,
      "Ġrarest": 7206,
      "Ġraze": 7207,
      "Ġrazed": 7208,
      "Ġrago": 7209,
      "Ġrabble": 7210,
      "Ġsweeten": 7211,
      "agate": 7212,
      "Ġfold": 7213,
      "Ġfoaming": 7214,
      "ension": 7215,
      "Ġprecise": 7216,
      "Ġpregnant": 7217,
      "Ġpartial": 7218,
      "inable": 7219,
      "Ġscri": 7220,
      "Ġscra": 7221,
      "Ġscare": 7222,
      "Ġscouts": 7223,
      "ccustom": 7224,
      "Ġchid": 7225,
      "Ġchides": 7226,
      "Ġdally": 7227,
      "Ġharms": 7228,
      "Ġhardy": 7229,
      "Ġharder": 7230,
      "Ġcog": 7231,
      "Ġcoin": 7232,
      "Ġcoats": 7233,
      "Ġjulius": 7234,
      "Ġcommune": 7235,
      "Ġcommod": 7236,
      "Ġvial": 7237,
      "Ġafric": 7238,
      "Ġafresh": 7239,
      "Ġrepaid": 7240,
      "assad": 7241,
      "Ġconsume": 7242,
      "Ġconserves": 7243,
      "Ġprescri": 7244,
      "Ġcapable": 7245,
      "Ġlongs": 7246,
      "Ġlonging": 7247,
      "Ġmercury": 7248,
      "Ġkeeping": 7249,
      "Ġmightily": 7250,
      "Ġclothe": 7251,
      "Ġlively": 7252,
      "Ġchron": 7253,
      "Ġpeasant": 7254,
      "Ġfooling": 7255,
      "Ġfooting": 7256,
      "Ġcourses": 7257,
      "Ġgazed": 7258,
      "Ġresteth": 7259,
      "Ġrestrain": 7260,
      "Ġpeck": 7261,
      "Ġtrim": 7262,
      "imer": 7263,
      "Ġcrowned": 7264,
      "lete": 7265,
      "Ġmistook": 7266,
      "Ġresidence": 7267,
      "Ġreserved": 7268,
      "Ġcompell": 7269,
      "Ġcomplete": 7270,
      "Ġbrandon": 7271,
      "Ġbragg": 7272,
      "Ġbrazen": 7273,
      "Ġenters": 7274,
      "Ġprovoke": 7275,
      "mbling": 7276,
      "Ġslender": 7277,
      "Ġbesp": 7278,
      "Ġbesiege": 7279,
      "Ġgust": 7280,
      "Ġguild": 7281,
      "Ġhelen": 7282,
      "Ġhelms": 7283,
      "Ġendow": 7284,
      "Ġendea": 7285,
      "Ġhatches": 7286,
      "Ġwitty": 7287,
      "iously": 7288,
      "Ġpurged": 7289,
      "Ġpurses": 7290,
      "Ġpursues": 7291,
      "Ġsuborn": 7292,
      "Ġsuburbs": 7293,
      "Ġsmiled": 7294,
      "Ġchain": 7295,
      "Ġchaff": 7296,
      "Ġcharitable": 7297,
      "Ġrightly": 7298,
      "Ġfinding": 7299,
      "Ġcurs": 7300,
      "Ġcurbs": 7301,
      "Ġtraged": 7302,
      "Ġtravel": 7303,
      "Ġtraffic": 7304,
      "Ġchequ": 7305,
      "Ġcheers": 7306,
      "Ġtongueless": 7307,
      "ieldy": 7308,
      "Ġsenis": 7309,
      "Ġwelcom": 7310,
      "Ġwelkin": 7311,
      "Ġtreble": 7312,
      "Ġtreaty": 7313,
      "Ġneedy": 7314,
      "Ġconfined": 7315,
      "Ġconfounds": 7316,
      "Ġhopeless": 7317,
      "ected": 7318,
      "Ġbench": 7319,
      "Ġimpre": 7320,
      "Ġimpose": 7321,
      "Ġimpute": 7322,
      "Ġimposition": 7323,
      "Ġimplore": 7324,
      "Ġbusied": 7325,
      "Ġbringing": 7326,
      "Ġfortnight": 7327,
      "retion": 7328,
      "retation": 7329,
      "Ġpark": 7330,
      "Ġparle": 7331,
      "Ġparch": 7332,
      "Ġparadise": 7333,
      "Ġparlous": 7334,
      "Ġparasite": 7335,
      "Ġhappen": 7336,
      "Ġjustly": 7337,
      "Ġjustify": 7338,
      "Ġgrub": 7339,
      "asonable": 7340,
      "Ġhandsome": 7341,
      "Ġremn": 7342,
      "Ġremiss": 7343,
      "Ġremote": 7344,
      "Ġhelping": 7345,
      "Ġfees": 7346,
      "Ġoverheard": 7347,
      "Ġoverthrow": 7348,
      "Ġgiant": 7349,
      "Ġpasses": 7350,
      "Ġpleaseth": 7351,
      "Ġshameless": 7352,
      "Ġdevised": 7353,
      "Ġengross": 7354,
      "Ġwrongfully": 7355,
      "Ġobdur": 7356,
      "Ġoblivion": 7357,
      "Ġdivers": 7358,
      "Ġdiligence": 7359,
      "Ġkills": 7360,
      "Ġplaced": 7361,
      "Ġslide": 7362,
      "Ġstrip": 7363,
      "Ġstride": 7364,
      "Ġstripes": 7365,
      "Ġsignories": 7366,
      "Ġdepth": 7367,
      "Ġdeposing": 7368,
      "Ġlesson": 7369,
      "Ġrichly": 7370,
      "Ġeyeb": 7371,
      "new": 7372,
      "Ġsuns": 7373,
      "Ġplayer": 7374,
      "Ġplayers": 7375,
      "Ġtalked": 7376,
      "Ġcharms": 7377,
      "Ġcharters": 7378,
      "Ġvillanous": 7379,
      "Ġadvant": 7380,
      "Ġmontgom": 7381,
      "Ġwomanish": 7382,
      "Ġbarr": 7383,
      "Ġbargain": 7384,
      "Ġvalent": 7385,
      "Ġsending": 7386,
      "Ġinstance": 7387,
      "Ġinstinct": 7388,
      "Ġdispute": 7389,
      "Ġdisposed": 7390,
      "Ġassay": 7391,
      "Ġseemed": 7392,
      "Ġcarrion": 7393,
      "Ġinterest": 7394,
      "Ġcommandment": 7395,
      "Ġcountryman": 7396,
      "dding": 7397,
      "Ġtrad": 7398,
      "Ġdances": 7399,
      "Ġreasonable": 7400,
      "Ġswearing": 7401,
      "Ġshepherds": 7402,
      "derate": 7403,
      "Ġsupple": 7404,
      "Ġdoubted": 7405,
      "Ġdoubtless": 7406,
      "Ġstreak": 7407,
      "Ġstrain": 7408,
      "Ġtending": 7409,
      "Ġwaft": 7410,
      "Ġwinding": 7411,
      "Ġmessage": 7412,
      "Ġwatching": 7413,
      "Ġwatchful": 7414,
      "Ġlamp": 7415,
      "Ġlammas": 7416,
      "Ġdeserts": 7417,
      "Ġtemperate": 7418,
      "Ġfitter": 7419,
      "Ġfitting": 7420,
      "Ġincur": 7421,
      "Ġdiscred": 7422,
      "Ġdiscreet": 7423,
      "Ġdiscretion": 7424,
      "Ġpurposes": 7425,
      "Ġreturns": 7426,
      "Ġlane": 7427,
      "Ġspoils": 7428,
      "Ġthroughly": 7429,
      "beli": 7430,
      "mmer": 7431,
      "Ġbreaths": 7432,
      "Ġtitles": 7433,
      "Ġgrove": 7434,
      "Ġsoonest": 7435,
      "Ġuntainted": 7436,
      "Ġcolder": 7437,
      "Ġmirror": 7438,
      "Ġyew": 7439,
      "Ġrecount": 7440,
      "Ġwarrants": 7441,
      "Ġremembering": 7442,
      "hyme": 7443,
      "Ġmete": 7444,
      "Ġbolder": 7445,
      "Ġstrangely": 7446,
      "Ġplucked": 7447,
      "overed": 7448,
      "Ġdesired": 7449,
      "Ġbonny": 7450,
      "Ġbonnet": 7451,
      "Ġopening": 7452,
      "Ġinflu": 7453,
      "Ġinfamy": 7454,
      "Ġinfancy": 7455,
      "Ġinfinite": 7456,
      "Ġvisor": 7457,
      "Ġquicken": 7458,
      "mities": 7459,
      "usters": 7460,
      "Ġordain": 7461,
      "Ġordinance": 7462,
      "Ġapril": 7463,
      "Ġwooers": 7464,
      "Ġbats": 7465,
      "Ġwearing": 7466,
      "Ġprofound": 7467,
      "Ġentreated": 7468,
      "Ġinstructions": 7469,
      "Ġasked": 7470,
      "Ġexecut": 7471,
      "Ġquarre": 7472,
      "Ġsurm": 7473,
      "Ġsurly": 7474,
      "Ġsurvey": 7475,
      "Ġforefather": 7476,
      "Ġforewar": 7477,
      "Ġforetell": 7478,
      "Ġcleft": 7479,
      "Ġcleave": 7480,
      "Ġcalf": 7481,
      "Ġspeedily": 7482,
      "Ġposts": 7483,
      "Ġofficious": 7484,
      "Ġpreparation": 7485,
      "Ġstrengthen": 7486,
      "eyed": 7487,
      "Ġvehe": 7488,
      "Ġbites": 7489,
      "Ġbiting": 7490,
      "Ġdistinct": 7491,
      "Ġdistrib": 7492,
      "Ġdistemper": 7493,
      "Ġgeld": 7494,
      "Ġsoften": 7495,
      "Ġcasting": 7496,
      "Ġchangeling": 7497,
      "Ġdelivery": 7498,
      "Ġdeliverance": 7499,
      "Ġwondering": 7500,
      "join": 7501,
      "Ġwasted": 7502,
      "Ġcropp": 7503,
      "Ġbegging": 7504,
      "Ġbeggary": 7505,
      "Ġacting": 7506,
      "Ġskin": 7507,
      "Ġverge": 7508,
      "Ġverity": 7509,
      "Ġclouded": 7510,
      "Ġentering": 7511,
      "Ġenterpri": 7512,
      "Ġcheerful": 7513,
      "Ġgarlic": 7514,
      "itae": 7515,
      "Ġexpost": 7516,
      "Ġconsented": 7517,
      "Ġordering": 7518,
      "Ġorderly": 7519,
      "cession": 7520,
      "Ġsickly": 7521,
      "Ġregion": 7522,
      "Ġregreet": 7523,
      "Ġconsuls": 7524,
      "Ġdropp": 7525,
      "Ġwishes": 7526,
      "Ġmoveables": 7527,
      "Ġproceeding": 7528,
      "Ġfeasting": 7529,
      "Ġliberties": 7530,
      "Ġbeginning": 7531,
      "Ġbriefly": 7532,
      "Ġvisiting": 7533,
      "voury": 7534,
      "Ġestab": 7535,
      "Ġmortality": 7536,
      "Ġpenury": 7537,
      "Ġintercept": 7538,
      "Ġinterchan": 7539,
      "Ġintercession": 7540,
      "Ġfrowning": 7541,
      "Ġknavery": 7542,
      "Ġrespects": 7543,
      "Ġtroubles": 7544,
      "hematic": 7545,
      "Ġoppose": 7546,
      "Ġdrinks": 7547,
      "Ġemulation": 7548,
      "Ġemperor": 7549,
      "Ġgotten": 7550,
      "Ġspeechless": 7551,
      "Ġbawdy": 7552,
      "Ġlamentations": 7553,
      "Ġfilling": 7554,
      "Ġgallop": 7555,
      "Ġgallows": 7556,
      "Ġevident": 7557,
      "Ġunwill": 7558,
      "Ġunwieldy": 7559,
      "Ġdefiance": 7560,
      "Ġconcern": 7561,
      "Ġusurps": 7562,
      "Ġsuccessful": 7563,
      "Ġfresher": 7564,
      "Ġfreshest": 7565,
      "Ġsummers": 7566,
      "Ġapproaches": 7567,
      "Ġchristendom": 7568,
      "spo": 7569,
      "Ġslanders": 7570,
      "Ġlaboured": 7571,
      "Ġderived": 7572,
      "Ġdarkly": 7573,
      "Ġpals": 7574,
      "Ġurging": 7575,
      "Ġviolate": 7576,
      "Ġpatiently": 7577,
      "Ġshift": 7578,
      "Ġsusan": 7579,
      "Ġtempor": 7580,
      "Ġforbids": 7581,
      "Ġforbidden": 7582,
      "Ġtorches": 7583,
      "Ġgirls": 7584,
      "Ġinjured": 7585,
      "Ġproclaimed": 7586,
      "Ġpainful": 7587,
      "Ġoffenders": 7588,
      "Ġrefuge": 7589,
      "Ġlisten": 7590,
      "Ġenjoin": 7591,
      "Ġbirths": 7592,
      "ivity": 7593,
      "soe": 7594,
      "Ġteaching": 7595,
      "Ġmeditation": 7596,
      "Ġwildly": 7597,
      "Ġeffemin": 7598,
      "Ġshores": 7599,
      "Ġdecree": 7600,
      "Ġdecrees": 7601,
      "Ġexclaims": 7602,
      "Ġpleasures": 7603,
      "Ġchoke": 7604,
      "Ġmutually": 7605,
      "Ġmutinies": 7606,
      "Ġbelongs": 7607,
      "Ġdooms": 7608,
      "Ġfavourable": 7609,
      "Ġcontinu": 7610,
      "Ġcontinued": 7611,
      "Ġenglishman": 7612,
      "Ġcrad": 7613,
      "Ġcrutch": 7614,
      "Ġcrutches": 7615,
      "Ġdrowning": 7616,
      "Ġunfurn": 7617,
      "Ġdoublet": 7618,
      "Ġsalute": 7619,
      "Ġmantle": 7620,
      "Ġbastardy": 7621,
      "Ġunsheathe": 7622,
      "Ġswiftly": 7623,
      "Ġdesperately": 7624,
      "Ġcountermand": 7625,
      "Ġauthorities": 7626,
      "Ġbeggarly": 7627,
      "Ġeffects": 7628,
      "Ġfruits": 7629,
      "Ġelders": 7630,
      "Ġstudies": 7631,
      "Ġstudied": 7632,
      "Ġseverity": 7633,
      "Ġpersuades": 7634,
      "Ġpersuaded": 7635,
      "Ġacquit": 7636,
      "Ġwretchedness": 7637,
      "Ġenjoys": 7638,
      "Ġwestmin": 7639,
      "Ġmounted": 7640,
      "Ġcustomary": 7641,
      "Ġstabbed": 7642,
      "Ġunbuck": 7643,
      "Ġdegenerate": 7644,
      "Ġdeceased": 7645,
      "Ġbenefact": 7646,
      "Ġfancies": 7647,
      "Ġcreation": 7648,
      "Ġdwelling": 7649,
      "Ġexcels": 7650,
      "Ġplots": 7651,
      "Ġplotted": 7652,
      "Ġwailing": 7653,
      "Ġprivately": 7654,
      "blown": 7655,
      "Ġwagon": 7656,
      "lloa": 7657,
      "Ġallowing": 7658,
      "Ġnecessities": 7659,
      "Ġproofs": 7660,
      "Ġarrival": 7661,
      "Ġsailors": 7662,
      "Ġprevails": 7663,
      "Ġremembered": 7664,
      "Ġgrossly": 7665,
      "Ġprofession": 7666,
      "Ġprophecies": 7667,
      "Ġdirectly": 7668,
      "Ġembracements": 7669,
      "faith": 7670,
      "favour": 7671,
      "Ġdriven": 7672,
      "Ġhides": 7673,
      "Ġforsook": 7674,
      "Ġadvancement": 7675,
      "Ġinnocents": 7676,
      "Ġlengthens": 7677,
      "boy": 7678,
      "Ġnumbering": 7679,
      "Ġpresses": 7680,
      "Ġelection": 7681,
      "Ġelements": 7682,
      "Ġstole": 7683,
      "Ġshuts": 7684,
      "Ġargues": 7685,
      "Ġargument": 7686,
      "Ġarguments": 7687,
      "Ġheavily": 7688,
      "Ġconsidering": 7689,
      "Ġdiscovery": 7690,
      "Ġcomplaints": 7691,
      "shapen": 7692,
      "when": 7693,
      "Ġsymp": 7694,
      "Ġblasts": 7695,
      "Ġdetested": 7696,
      "Ġphysicians": 7697,
      "Ġmended": 7698,
      "Ġbonds": 7699,
      "Ġambush": 7700,
      "Ġambassad": 7701,
      "Ġballads": 7702,
      "Ġpetitions": 7703,
      "Ġconspiracy": 7704,
      "Ġmethoughts": 7705,
      "Ġexpressly": 7706,
      "Ġamended": 7707,
      "Ġwalks": 7708,
      "Ġbasilis": 7709,
      "Ġbandy": 7710,
      "Ġcensured": 7711,
      "Ġports": 7712,
      "Ġportion": 7713,
      "Ġbewray": 7714,
      "Ġbewitch": 7715,
      "Ġhunting": 7716,
      "Ġvanqu": 7717,
      "Ġvanish": 7718,
      "Ġenforcement": 7719,
      "Ġleanness": 7720,
      "Ġdissentious": 7721,
      "Ġaffected": 7722,
      "Ġaccusations": 7723,
      "Ġpunishment": 7724,
      "beseeming": 7725,
      "score": 7726,
      "Ġfashions": 7727,
      "Ġfeeble": 7728,
      "Ġcrimes": 7729,
      "Ġcrimin": 7730,
      "Ġlinen": 7731,
      "Ġlineal": 7732,
      "Ġdigress": 7733,
      "Ġrelation": 7734,
      "Ġseparated": 7735,
      "Ġjewels": 7736,
      "Ġrosemary": 7737,
      "Ġwaiting": 7738,
      "Ġvexation": 7739,
      "Ġtrod": 7740,
      "Ġflag": 7741,
      "Ġdiseases": 7742,
      "Ġingrat": 7743,
      "Ġingrateful": 7744,
      "Ġmelting": 7745,
      "Ġmelted": 7746,
      "Ġshunn": 7747,
      "Ġunavoided": 7748,
      "Ġunawares": 7749,
      "Ġunaccustom": 7750,
      "Ġquality": 7751,
      "Ġqualities": 7752,
      "Ġqualify": 7753,
      "Ġblocks": 7754,
      "Ġalteration": 7755,
      "Ġprefix": 7756,
      "Ġclamorous": 7757,
      "Ġrescued": 7758,
      "Ġcompanions": 7759,
      "Ġhumane": 7760,
      "Ġacquaintance": 7761,
      "Ġmorsel": 7762,
      "Ġmathematic": 7763,
      "Ġbills": 7764,
      "Ġthorny": 7765,
      "Ġwealthy": 7766,
      "Ġungentle": 7767,
      "Ġmanifested": 7768,
      "Ġdisperse": 7769,
      "Ġjointure": 7770,
      "Ġhenceforward": 7771,
      "Ġfiends": 7772,
      "Ġneglected": 7773,
      "Ġworthier": 7774,
      "Ġworthiest": 7775,
      "door": 7776,
      "doing": 7777,
      "weigh": 7778,
      "Ġturtle": 7779,
      "Ġturks": 7780,
      "Ġnearest": 7781,
      "Ġreceipt": 7782,
      "Ġreckless": 7783,
      "Ġunjustly": 7784,
      "Ġblots": 7785,
      "Ġposterns": 7786,
      "Ġfloods": 7787,
      "Ġcontrol": 7788,
      "Ġresisted": 7789,
      "Ġcomplexions": 7790,
      "Ġhelmets": 7791,
      "Ġsmoking": 7792,
      "Ġdifferen": 7793,
      "Ġdispleased": 7794,
      "Ġreconciled": 7795,
      "Ġprodigy": 7796,
      "Ġaccompany": 7797,
      "Ġceremony": 7798,
      "withal": 7799,
      "Ġbrittle": 7800,
      "Ġlatin": 7801,
      "Ġlurk": 7802,
      "Ġlurking": 7803,
      "Ġdimm": 7804,
      "Ġhills": 7805,
      "Ġkitche": 7806,
      "Ġhorrible": 7807,
      "Ġstumbled": 7808,
      "Ġfactious": 7809,
      "Ġspectators": 7810,
      "Ġspectacle": 7811,
      "Ġmariner": 7812,
      "Ġdisguise": 7813,
      "Ġcoffin": 7814,
      "Ġcoffers": 7815,
      "Ġtransform": 7816,
      "Ġtransport": 7817,
      "Ġsubdue": 7818,
      "Ġsubdued": 7819,
      "Ġbeauties": 7820,
      "Ġgratis": 7821,
      "Ġincense": 7822,
      "Ġfifty": 7823,
      "Ġinnocency": 7824,
      "Ġamazon": 7825,
      "Ġtales": 7826,
      "Ġtrenches": 7827,
      "Ġtrencher": 7828,
      "Ġtouches": 7829,
      "Ġtoucheth": 7830,
      "Ġavouch": 7831,
      "Ġaudience": 7832,
      "Ġdrooping": 7833,
      "Ġnettle": 7834,
      "Ġpikes": 7835,
      "Ġinheritance": 7836,
      "Ġhomicide": 7837,
      "Ġstafford": 7838,
      "Ġanchors": 7839,
      "Ġspotted": 7840,
      "Ġshrug": 7841,
      "Ġexceeds": 7842,
      "Ġbuckle": 7843,
      "Ġthirsty": 7844,
      "Ġattorneys": 7845,
      "Ġinsolent": 7846,
      "Ġsacrifice": 7847,
      "maker": 7848,
      "makers": 7849,
      "tino": 7850,
      "tinent": 7851,
      "Ġsession": 7852,
      "oubted": 7853,
      "Ġmasqu": 7854,
      "Ġmasks": 7855,
      "Ġfretting": 7856,
      "Ġcushion": 7857,
      "Ġcushions": 7858,
      "Ġcardinal": 7859,
      "Ġporter": 7860,
      "Ġgamut": 7861,
      "Ġgossips": 7862,
      "Ġsuggest": 7863,
      "Ġrheum": 7864,
      "Ġjacks": 7865,
      "Ġunlikely": 7866,
      "Ġdeformity": 7867,
      "Ġcongeal": 7868,
      "Ġdisinherited": 7869,
      "Ġabundant": 7870,
      "Ġabundance": 7871,
      "Ġclerk": 7872,
      "Ġclergy": 7873,
      "Ġcomplices": 7874,
      "Ġparcel": 7875,
      "Ġobsequies": 7876,
      "Ġrobbers": 7877,
      "Ġdetestable": 7878,
      "Ġfantastical": 7879,
      "boding": 7880,
      "ckey": 7881,
      "weary": 7882,
      "Ġsoothe": 7883,
      "Ġbulk": 7884,
      "Ġfilthy": 7885,
      "Ġchertsey": 7886,
      "Ġyesternight": 7887,
      "Ġpowder": 7888,
      "Ġinvention": 7889,
      "Ġstinking": 7890,
      "Ġrelieve": 7891,
      "Ġresemblance": 7892,
      "Ġancestors": 7893,
      "Ġmagistrate": 7894,
      "Ġsparkling": 7895,
      "Ġwhipped": 7896,
      "Ġrigour": 7897,
      "Ġjerusale": 7898,
      "Ġjuno": 7899,
      "Ġmarquess": 7900,
      "Ġdissembling": 7901,
      "Ġexactly": 7902,
      "Ġplanet": 7903,
      "Ġeverlasting": 7904,
      "Ġperfume": 7905,
      "Ġbuzzard": 7906,
      "Ġreproach": 7907,
      "Ġchampion": 7908,
      "Ġconfederate": 7909,
      "Ġafterwards": 7910,
      "Ġmiscarried": 7911,
      "Ġobscured": 7912,
      "Ġbarbar": 7913,
      "Ġsurprised": 7914,
      "Ġinsinuate": 7915,
      "Ġinterpretation": 7916,
      "Ġunprovided": 7917,
      "Ġenvironed": 7918,
      "Ġcreeping": 7919,
      "Ġadopted": 7920,
      "Ġlineaments": 7921,
      "Ġunluckily": 7922,
      "Ġmomentary": 7923,
      "minded": 7924,
      "ville": 7925,
      "Ġtinker": 7926,
      "Ġcandle": 7927,
      "Ġdrowsy": 7928,
      "Ġthreshold": 7929,
      "Ġhallowmas": 7930,
      "Ġbeetle": 7931,
      "Ġinveterate": 7932,
      "Ġfornication": 7933,
      "Ġecho": 7934,
      "Ġstealing": 7935,
      "Ġstubborn": 7936,
      "Ġassembly": 7937,
      "Ġvigour": 7938,
      "Ġdolour": 7939,
      "Ġorphans": 7940,
      "Ġtimorous": 7941,
      "Ġlechery": 7942,
      "Ġdisloyal": 7943,
      "Ġscourge": 7944,
      "Ġchivalry": 7945,
      "Ġcobham": 7946,
      "Ġappellant": 7947,
      "Ġapplause": 7948,
      "Ġclubs": 7949,
      "Ġsubmission": 7950,
      "Ġchafed": 7951,
      "Ġbristol": 7952,
      "Ġsuppliant": 7953,
      "Ġrequital": 7954,
      "Ġminstrels": 7955,
      "Ġinfirmity": 7956,
      "Ġinfringe": 7957,
      "Ġcrosby": 7958,
      "Ġembraces": 7959,
      "Ġmalignant": 7960,
      "Ġunpleasing": 7961,
      "Ġtarquin": 7962,
      "Ġargosy": 7963,
      "Ġbutterfly": 7964,
      "Ġeloquence": 7965,
      "Ġenfranchise": 7966,
      "Ġsubscribe": 7967,
      "disp": 7968,
      "school": 7969,
      "souls": 7970,
      "women": 7971,
      "Ġtumult": 7972,
      "Ġaqua": 7973,
      "Ġsurname": 7974,
      "Ġmortimer": 7975,
      "Ġbunch": 7976,
      "Ġbattery": 7977,
      "Ġbashful": 7978,
      "Ġfuture": 7979,
      "Ġfliers": 7980,
      "Ġlascivious": 7981,
      "Ġdighton": 7982,
      "Ġnuns": 7983,
      "Ġnineteen": 7984,
      "Ġpoorest": 7985,
      "Ġthreefold": 7986,
      "seeming": 7987,
      "uspicious": 7988,
      "Ġeurope": 7989,
      "Ġulysses": 7990,
      "Ġsteterat": 7991,
      "Ġstratagems": 7992,
      "Ġrevoke": 7993,
      "estershire": 7994,
      "Ġannoy": 7995,
      "Ġanguish": 7996,
      "Ġspeeches": 7997,
      "Ġdelphos": 7998,
      "Ġproffer": 7999
    },
    "merges": [
      [
        "Ġ",
        "t"
      ],
      [
        "h",
        "e"
      ],
      [
        "Ġ",
        "a"
      ],
      [
        "Ġ",
        "s"
      ],
      [
        "Ġ",
        "w"
      ],
      [
        "Ġ",
        "i"
      ],
      [
        "o",
        "u"
      ],
      [
        "Ġ",
        "m"
      ],
      [
        "Ġ",
        "b"
      ],
      [
        "h",
        "a"
      ],
      [
        "r",
        "e"
      ],
      [
        "Ġt",
        "he"
      ],
      [
        "n",
        "d"
      ],
      [
        "i",
        "n"
      ],
      [
        "o",
        "r"
      ],
      [
        "Ġ",
        "f"
      ],
      [
        "Ġ",
        "c"
      ],
      [
        "Ġ",
        "Ċ"
      ],
      [
        "Ġ",
        "o"
      ],
      [
        "e",
        "r"
      ],
      [
        "Ġ",
        "l"
      ],
      [
        "l",
        "l"
      ],
      [
        "Ġ",
        "d"
      ],
      [
        "Ġ",
        "n"
      ],
      [
        "h",
        "i"
      ],
      [
        "Ġ",
        "y"
      ],
      [
        "e",
        "n"
      ],
      [
        "Ġ",
        "p"
      ],
      [
        "Ġt",
        "o"
      ],
      [
        "e",
        "s"
      ],
      [
        "Ġa",
        "nd"
      ],
      [
        "a",
        "r"
      ],
      [
        "Ġy",
        "ou"
      ],
      [
        "Ġ",
        "he"
      ],
      [
        "o",
        "n"
      ],
      [
        "Ġ",
        "g"
      ],
      [
        "t",
        "h"
      ],
      [
        "in",
        "g"
      ],
      [
        "s",
        "t"
      ],
      [
        "Ġt",
        "h"
      ],
      [
        "Ġo",
        "f"
      ],
      [
        "Ġn",
        "o"
      ],
      [
        "ha",
        "t"
      ],
      [
        "a",
        "n"
      ],
      [
        "o",
        "m"
      ],
      [
        "v",
        "e"
      ],
      [
        "Ġw",
        "i"
      ],
      [
        "Ġ",
        "ha"
      ],
      [
        "Ġb",
        "e"
      ],
      [
        "s",
        "e"
      ],
      [
        "Ġm",
        "y"
      ],
      [
        "Ġ",
        "hi"
      ],
      [
        "o",
        "w"
      ],
      [
        "Ġi",
        "n"
      ],
      [
        "c",
        "e"
      ],
      [
        "a",
        "t"
      ],
      [
        "l",
        "e"
      ],
      [
        "Ġt",
        "hat"
      ],
      [
        "r",
        "i"
      ],
      [
        "e",
        "d"
      ],
      [
        "a",
        "y"
      ],
      [
        "e",
        "t"
      ],
      [
        "Ġf",
        "or"
      ],
      [
        "u",
        "t"
      ],
      [
        "Ġ",
        "k"
      ],
      [
        "l",
        "d"
      ],
      [
        "Ġi",
        "s"
      ],
      [
        "Ġw",
        "e"
      ],
      [
        "i",
        "r"
      ],
      [
        "u",
        "s"
      ],
      [
        "Ġm",
        "e"
      ],
      [
        "Ġ",
        "e"
      ],
      [
        "Ġ",
        "h"
      ],
      [
        "k",
        "e"
      ],
      [
        "Ġno",
        "t"
      ],
      [
        "'",
        "s"
      ],
      [
        "Ġwi",
        "th"
      ],
      [
        "c",
        "h"
      ],
      [
        "g",
        "h"
      ],
      [
        "o",
        "o"
      ],
      [
        "en",
        "t"
      ],
      [
        "i",
        "t"
      ],
      [
        "Ġi",
        "t"
      ],
      [
        "Ġyou",
        "r"
      ],
      [
        "Ġth",
        "ou"
      ],
      [
        "ou",
        "r"
      ],
      [
        "he",
        "r"
      ],
      [
        "e",
        "a"
      ],
      [
        "r",
        "o"
      ],
      [
        "Ġt",
        "hi"
      ],
      [
        "Ġ",
        "u"
      ],
      [
        "Ġs",
        "t"
      ],
      [
        "om",
        "e"
      ],
      [
        "Ġa",
        "s"
      ],
      [
        "i",
        "s"
      ],
      [
        "Ġhi",
        "s"
      ],
      [
        "Ġb",
        "ut"
      ],
      [
        "Ġthi",
        "s"
      ],
      [
        "Ġs",
        "o"
      ],
      [
        "Ġ",
        "re"
      ],
      [
        "'",
        "d"
      ],
      [
        "Ġl",
        "i"
      ],
      [
        "a",
        "d"
      ],
      [
        "Ġha",
        "ve"
      ],
      [
        "or",
        "d"
      ],
      [
        "Ġ",
        "v"
      ],
      [
        "i",
        "o"
      ],
      [
        "l",
        "y"
      ],
      [
        "r",
        "a"
      ],
      [
        "gh",
        "t"
      ],
      [
        "Ġo",
        "n"
      ],
      [
        "Ġhi",
        "m"
      ],
      [
        "a",
        "l"
      ],
      [
        "Ġd",
        "o"
      ],
      [
        "a",
        "s"
      ],
      [
        "c",
        "k"
      ],
      [
        "es",
        "t"
      ],
      [
        "i",
        "d"
      ],
      [
        "Ġw",
        "hat"
      ],
      [
        "u",
        "r"
      ],
      [
        "Ġm",
        "o"
      ],
      [
        "Ġa",
        "n"
      ],
      [
        "Ġs",
        "ha"
      ],
      [
        "r",
        "u"
      ],
      [
        "Ġs",
        "e"
      ],
      [
        "Ġth",
        "y"
      ],
      [
        "ou",
        "ld"
      ],
      [
        "Ġwi",
        "ll"
      ],
      [
        "oo",
        "d"
      ],
      [
        "a",
        "m"
      ],
      [
        "a",
        "in"
      ],
      [
        "l",
        "i"
      ],
      [
        "Ġk",
        "ing"
      ],
      [
        "es",
        "s"
      ],
      [
        "g",
        "e"
      ],
      [
        "ar",
        "d"
      ],
      [
        "Ġw",
        "h"
      ],
      [
        "Ġa",
        "ll"
      ],
      [
        "a",
        "nd"
      ],
      [
        "Ġw",
        "he"
      ],
      [
        "Ġg",
        "o"
      ],
      [
        "Ġhe",
        "r"
      ],
      [
        "Ġs",
        "u"
      ],
      [
        "t",
        "her"
      ],
      [
        "Ġb",
        "y"
      ],
      [
        "v",
        "er"
      ],
      [
        "Ġ",
        "'"
      ],
      [
        "Ġl",
        "o"
      ],
      [
        "Ġsha",
        "ll"
      ],
      [
        "Ġf",
        "a"
      ],
      [
        "Ġl",
        "ord"
      ],
      [
        "i",
        "on"
      ],
      [
        "Ġm",
        "a"
      ],
      [
        "q",
        "u"
      ],
      [
        "Ġ",
        "our"
      ],
      [
        "e",
        "ar"
      ],
      [
        "Ġs",
        "p"
      ],
      [
        "Ġw",
        "hi"
      ],
      [
        "e",
        "ll"
      ],
      [
        "Ġi",
        "f"
      ],
      [
        "Ġa",
        "re"
      ],
      [
        "ha",
        "n"
      ],
      [
        "Ġthe",
        "e"
      ],
      [
        "Ġs",
        "h"
      ],
      [
        "Ġ",
        "ri"
      ],
      [
        "Ġn",
        "e"
      ],
      [
        "r",
        "y"
      ],
      [
        "Ġc",
        "a"
      ],
      [
        "Ġf",
        "r"
      ],
      [
        "Ġb",
        "o"
      ],
      [
        "Ġ",
        "r"
      ],
      [
        "Ġk",
        "n"
      ],
      [
        "Ġg",
        "ood"
      ],
      [
        "Ġc",
        "om"
      ],
      [
        "Ġ",
        "j"
      ],
      [
        "Ġno",
        "w"
      ],
      [
        "Ġu",
        "p"
      ],
      [
        "i",
        "ll"
      ],
      [
        "t",
        "er"
      ],
      [
        "f",
        "e"
      ],
      [
        "Ġu",
        "n"
      ],
      [
        "Ġs",
        "he"
      ],
      [
        "c",
        "t"
      ],
      [
        "ou",
        "s"
      ],
      [
        "Ġthe",
        "re"
      ],
      [
        "i",
        "us"
      ],
      [
        "Ġd",
        "u"
      ],
      [
        "Ġa",
        "t"
      ],
      [
        "Ġs",
        "ir"
      ],
      [
        "Ġm",
        "ar"
      ],
      [
        "Ġm",
        "u"
      ],
      [
        "Ġp",
        "r"
      ],
      [
        "Ġ",
        "or"
      ],
      [
        "l",
        "a"
      ],
      [
        "Ġd",
        "e"
      ],
      [
        "an",
        "t"
      ],
      [
        "u",
        "l"
      ],
      [
        "Ġc",
        "ome"
      ],
      [
        "Ġ",
        "qu"
      ],
      [
        "Ġc",
        "on"
      ],
      [
        "Ġfr",
        "om"
      ],
      [
        "Ġhe",
        "re"
      ],
      [
        "se",
        "l"
      ],
      [
        "ar",
        "t"
      ],
      [
        "m",
        "e"
      ],
      [
        "Ġt",
        "han"
      ],
      [
        "Ġthe",
        "n"
      ],
      [
        "ha",
        "r"
      ],
      [
        "in",
        "e"
      ],
      [
        "Ġm",
        "an"
      ],
      [
        "on",
        "e"
      ],
      [
        "Ġl",
        "et"
      ],
      [
        "Ġmo",
        "re"
      ],
      [
        "Ġwhi",
        "ch"
      ],
      [
        "'",
        "ll"
      ],
      [
        "Ġa",
        "m"
      ],
      [
        "i",
        "ght"
      ],
      [
        "i",
        "l"
      ],
      [
        "Ġw",
        "as"
      ],
      [
        "ow",
        "n"
      ],
      [
        "Ġw",
        "ould"
      ],
      [
        "o",
        "re"
      ],
      [
        "Ġp",
        "ro"
      ],
      [
        "b",
        "le"
      ],
      [
        "Ġthe",
        "y"
      ],
      [
        "Ġc",
        "an"
      ],
      [
        "Ġh",
        "ow"
      ],
      [
        "ou",
        "t"
      ],
      [
        "Ġd",
        "ea"
      ],
      [
        "Ġs",
        "ay"
      ],
      [
        "v",
        "en"
      ],
      [
        "Ġt",
        "a"
      ],
      [
        "Ġwe",
        "ll"
      ],
      [
        "re",
        "s"
      ],
      [
        "Ġthe",
        "m"
      ],
      [
        "Ġse",
        "e"
      ],
      [
        "Ġs",
        "w"
      ],
      [
        "w",
        "ard"
      ],
      [
        "i",
        "c"
      ],
      [
        "i",
        "ve"
      ],
      [
        "Ġb",
        "l"
      ],
      [
        "Ġthe",
        "ir"
      ],
      [
        "o",
        "l"
      ],
      [
        "er",
        "s"
      ],
      [
        "Ġlo",
        "ve"
      ],
      [
        "Ġp",
        "o"
      ],
      [
        "Ġdu",
        "ke"
      ],
      [
        "e",
        "p"
      ],
      [
        "or",
        "t"
      ],
      [
        "Ġwh",
        "o"
      ],
      [
        "u",
        "re"
      ],
      [
        "Ġa",
        "r"
      ],
      [
        "Ġwhe",
        "n"
      ],
      [
        "sel",
        "f"
      ],
      [
        "at",
        "her"
      ],
      [
        "at",
        "e"
      ],
      [
        "Ġkn",
        "ow"
      ],
      [
        "Ġm",
        "ay"
      ],
      [
        "Ġha",
        "th"
      ],
      [
        "e",
        "en"
      ],
      [
        "p",
        "p"
      ],
      [
        "Ġ",
        "us"
      ],
      [
        "Ġw",
        "ar"
      ],
      [
        "-",
        "-"
      ],
      [
        "u",
        "n"
      ],
      [
        "Ġwhe",
        "re"
      ],
      [
        "u",
        "m"
      ],
      [
        "Ġg",
        "re"
      ],
      [
        "Ġhe",
        "n"
      ],
      [
        "e",
        "nd"
      ],
      [
        "Ġh",
        "o"
      ],
      [
        "Ġon",
        "e"
      ],
      [
        "Ġw",
        "or"
      ],
      [
        "i",
        "st"
      ],
      [
        "o",
        "nd"
      ],
      [
        "Ġwe",
        "re"
      ],
      [
        "Ġ",
        "en"
      ],
      [
        "a",
        "st"
      ],
      [
        "Ġs",
        "a"
      ],
      [
        "c",
        "har"
      ],
      [
        "o",
        "t"
      ],
      [
        "on",
        "g"
      ],
      [
        "in",
        "k"
      ],
      [
        "Ġma",
        "ke"
      ],
      [
        "i",
        "e"
      ],
      [
        "Ġup",
        "on"
      ],
      [
        "f",
        "ore"
      ],
      [
        "Ġm",
        "ad"
      ],
      [
        "am",
        "e"
      ],
      [
        "Ġa",
        "g"
      ],
      [
        "Ġsh",
        "ould"
      ],
      [
        "Ġli",
        "ke"
      ],
      [
        "Ġd",
        "id"
      ],
      [
        "char",
        "d"
      ],
      [
        "Ġmu",
        "st"
      ],
      [
        "Ġri",
        "chard"
      ],
      [
        "Ġf",
        "ri"
      ],
      [
        "Ġy",
        "et"
      ],
      [
        "oo",
        "k"
      ],
      [
        "Ġt",
        "ru"
      ],
      [
        "Ġha",
        "d"
      ],
      [
        "Ġqu",
        "een"
      ],
      [
        "p",
        "e"
      ],
      [
        "i",
        "g"
      ],
      [
        "Ġr",
        "ome"
      ],
      [
        "Ġf",
        "ir"
      ],
      [
        "Ġn",
        "or"
      ],
      [
        "v",
        "es"
      ],
      [
        "Ġb",
        "a"
      ],
      [
        "Ġg",
        "ra"
      ],
      [
        "n",
        "g"
      ],
      [
        "Ġm",
        "en"
      ],
      [
        "Ġg",
        "l"
      ],
      [
        "c",
        "ent"
      ],
      [
        "Ġs",
        "ome"
      ],
      [
        "t",
        "is"
      ],
      [
        "Ġfir",
        "st"
      ],
      [
        "i",
        "nd"
      ],
      [
        "i",
        "ck"
      ],
      [
        "Ġ",
        "ed"
      ],
      [
        "ou",
        "nd"
      ],
      [
        "Ġwh",
        "y"
      ],
      [
        "r",
        "ow"
      ],
      [
        "u",
        "e"
      ],
      [
        "Ġto",
        "o"
      ],
      [
        "Ġf",
        "ather"
      ],
      [
        "ad",
        "y"
      ],
      [
        "p",
        "t"
      ],
      [
        "Ġt",
        "i"
      ],
      [
        "Ġgo",
        "d"
      ],
      [
        "a",
        "b"
      ],
      [
        "Ġed",
        "ward"
      ],
      [
        "Ġag",
        "ain"
      ],
      [
        "e",
        "l"
      ],
      [
        "ea",
        "k"
      ],
      [
        "cent",
        "io"
      ],
      [
        "Ġsp",
        "eak"
      ],
      [
        "Ġj",
        "u"
      ],
      [
        "Ġl",
        "e"
      ],
      [
        "Ġdea",
        "th"
      ],
      [
        "Ġb",
        "ro"
      ],
      [
        "Ġd",
        "is"
      ],
      [
        "Ġ",
        "out"
      ],
      [
        "re",
        "n"
      ],
      [
        "f",
        "ul"
      ],
      [
        "in",
        "ce"
      ],
      [
        "Ġha",
        "st"
      ],
      [
        "f",
        "f"
      ],
      [
        "i",
        "ce"
      ],
      [
        "Ġg",
        "ent"
      ],
      [
        "ou",
        "n"
      ],
      [
        "e",
        "m"
      ],
      [
        "Ġb",
        "r"
      ],
      [
        "it",
        "y"
      ],
      [
        "l",
        "o"
      ],
      [
        "se",
        "d"
      ],
      [
        "Ġg",
        "ive"
      ],
      [
        "Ġhen",
        "ry"
      ],
      [
        "or",
        "k"
      ],
      [
        "Ġta",
        "ke"
      ],
      [
        "Ġa",
        "b"
      ],
      [
        "Ġl",
        "ook"
      ],
      [
        "Ġy",
        "ork"
      ],
      [
        "en",
        "ce"
      ],
      [
        "Ġthe",
        "se"
      ],
      [
        "a",
        "re"
      ],
      [
        "Ġe",
        "x"
      ],
      [
        "Ġa",
        "l"
      ],
      [
        "Ġgent",
        "le"
      ],
      [
        "m",
        "an"
      ],
      [
        "est",
        "er"
      ],
      [
        "Ġrome",
        "o"
      ],
      [
        "Ġm",
        "ine"
      ],
      [
        "Ġhe",
        "art"
      ],
      [
        "Ġsu",
        "ch"
      ],
      [
        "Ġs",
        "er"
      ],
      [
        "Ġt",
        "ell"
      ],
      [
        "ou",
        "c"
      ],
      [
        "Ġha",
        "nd"
      ],
      [
        "Ġs",
        "on"
      ],
      [
        "is",
        "h"
      ],
      [
        "s",
        "s"
      ],
      [
        "Ġl",
        "ea"
      ],
      [
        "Ġh",
        "on"
      ],
      [
        "Ġhe",
        "a"
      ],
      [
        "ing",
        "s"
      ],
      [
        "Ġc",
        "or"
      ],
      [
        "Ġhe",
        "ar"
      ],
      [
        "an",
        "ce"
      ],
      [
        "d",
        "e"
      ],
      [
        "Ġgl",
        "ouc"
      ],
      [
        "c",
        "i"
      ],
      [
        "Ġ",
        "ro"
      ],
      [
        "Ġglouc",
        "ester"
      ],
      [
        "Ġof",
        "f"
      ],
      [
        "Ġti",
        "me"
      ],
      [
        "Ġbro",
        "ther"
      ],
      [
        "Ġl",
        "a"
      ],
      [
        "Ġp",
        "l"
      ],
      [
        "Ġe",
        "ar"
      ],
      [
        "Ġth",
        "ink"
      ],
      [
        "Ġl",
        "u"
      ],
      [
        "Ġl",
        "ady"
      ],
      [
        "'",
        "t"
      ],
      [
        "w",
        "n"
      ],
      [
        "t",
        "o"
      ],
      [
        "ig",
        "n"
      ],
      [
        "Ġp",
        "et"
      ],
      [
        "on",
        "t"
      ],
      [
        "Ġa",
        "w"
      ],
      [
        "Ġp",
        "a"
      ],
      [
        "b",
        "er"
      ],
      [
        "n",
        "ess"
      ],
      [
        "Ġc",
        "la"
      ],
      [
        "Ġmo",
        "st"
      ],
      [
        "Ġbl",
        "ood"
      ],
      [
        "i",
        "re"
      ],
      [
        "Ġb",
        "re"
      ],
      [
        "er",
        "y"
      ],
      [
        "Ġd",
        "es"
      ],
      [
        "Ġe",
        "ver"
      ],
      [
        "or",
        "n"
      ],
      [
        "i",
        "es"
      ],
      [
        "Ġd",
        "ay"
      ],
      [
        "Ġp",
        "er"
      ],
      [
        "r",
        "an"
      ],
      [
        "Ġp",
        "ri"
      ],
      [
        "Ġli",
        "fe"
      ],
      [
        "m",
        "ent"
      ],
      [
        "Ġi",
        "i"
      ],
      [
        "Ġe",
        "y"
      ],
      [
        "Ġw",
        "ord"
      ],
      [
        "Ġfri",
        "end"
      ],
      [
        "l",
        "and"
      ],
      [
        "Ġv",
        "in"
      ],
      [
        "w",
        "ick"
      ],
      [
        "Ġvin",
        "centio"
      ],
      [
        "p",
        "er"
      ],
      [
        "ou",
        "l"
      ],
      [
        "Ġar",
        "t"
      ],
      [
        "Ġb",
        "u"
      ],
      [
        "Ġwar",
        "wick"
      ],
      [
        "Ġt",
        "w"
      ],
      [
        "u",
        "ght"
      ],
      [
        "Ġf",
        "l"
      ],
      [
        "c",
        "hi"
      ],
      [
        "i",
        "z"
      ],
      [
        "Ġf",
        "ear"
      ],
      [
        "l",
        "ing"
      ],
      [
        "v",
        "ing"
      ],
      [
        "Ġmad",
        "e"
      ],
      [
        "o",
        "se"
      ],
      [
        "Ġpr",
        "ay"
      ],
      [
        "f",
        "t"
      ],
      [
        "i",
        "an"
      ],
      [
        "Ġa",
        "d"
      ],
      [
        "Ġj",
        "o"
      ],
      [
        "Ġca",
        "ll"
      ],
      [
        "Ġbe",
        "t"
      ],
      [
        "Ġmu",
        "ch"
      ],
      [
        "Ġm",
        "er"
      ],
      [
        "ur",
        "n"
      ],
      [
        "Ġhon",
        "our"
      ],
      [
        "e",
        "et"
      ],
      [
        "Ġne",
        "ver"
      ],
      [
        "t",
        "y"
      ],
      [
        "Ġse",
        "c"
      ],
      [
        "Ġgre",
        "at"
      ],
      [
        "io",
        "l"
      ],
      [
        "a",
        "ge"
      ],
      [
        "u",
        "se"
      ],
      [
        "Ġst",
        "and"
      ],
      [
        "o",
        "p"
      ],
      [
        "Ġ",
        "ra"
      ],
      [
        "in",
        "ius"
      ],
      [
        "l",
        "t"
      ],
      [
        "Ġsw",
        "eet"
      ],
      [
        "Ġdo",
        "th"
      ],
      [
        "Ġhea",
        "ven"
      ],
      [
        "a",
        "g"
      ],
      [
        "a",
        "k"
      ],
      [
        "m",
        "p"
      ],
      [
        "Ġc",
        "oun"
      ],
      [
        "ou",
        "gh"
      ],
      [
        "Ġf",
        "o"
      ],
      [
        "Ġfa",
        "ir"
      ],
      [
        "Ġtru",
        "e"
      ],
      [
        "n",
        "ot"
      ],
      [
        "en",
        "s"
      ],
      [
        "ve",
        "d"
      ],
      [
        "Ġp",
        "re"
      ],
      [
        "Ġp",
        "le"
      ],
      [
        "Ġne",
        "w"
      ],
      [
        "t",
        "s"
      ],
      [
        "Ġbe",
        "fore"
      ],
      [
        "c",
        "he"
      ],
      [
        "Ġp",
        "art"
      ],
      [
        "th",
        "ing"
      ],
      [
        "Ġpet",
        "ru"
      ],
      [
        "in",
        "a"
      ],
      [
        "Ġbo",
        "th"
      ],
      [
        "Ġcan",
        "not"
      ],
      [
        "chi",
        "o"
      ],
      [
        "Ġpetru",
        "chio"
      ],
      [
        "t",
        "le"
      ],
      [
        "or",
        "row"
      ],
      [
        "ur",
        "se"
      ],
      [
        "Ġan",
        "y"
      ],
      [
        "Ġs",
        "c"
      ],
      [
        "at",
        "ion"
      ],
      [
        "Ġpr",
        "ince"
      ],
      [
        "c",
        "c"
      ],
      [
        "Ġth",
        "us"
      ],
      [
        "Ġbe",
        "ing"
      ],
      [
        "r",
        "own"
      ],
      [
        "Ġa",
        "y"
      ],
      [
        "Ġc",
        "hi"
      ],
      [
        "st",
        "er"
      ],
      [
        "Ġn",
        "ame"
      ],
      [
        "Ġaw",
        "ay"
      ],
      [
        "Ġd",
        "a"
      ],
      [
        "Ġno",
        "ble"
      ],
      [
        "ha",
        "m"
      ],
      [
        "an",
        "us"
      ],
      [
        "Ġha",
        "r"
      ],
      [
        "iol",
        "anus"
      ],
      [
        "Ġc",
        "o"
      ],
      [
        "Ġbe",
        "en"
      ],
      [
        "e",
        "f"
      ],
      [
        "Ġcor",
        "iolanus"
      ],
      [
        "Ġbe",
        "ar"
      ],
      [
        "Ġju",
        "li"
      ],
      [
        "m",
        "s"
      ],
      [
        "re",
        "e"
      ],
      [
        "en",
        "ius"
      ],
      [
        "Ġmen",
        "enius"
      ],
      [
        "Ġv",
        "ery"
      ],
      [
        "res",
        "s"
      ],
      [
        ",",
        "--"
      ],
      [
        "Ġcom",
        "m"
      ],
      [
        "Ġjuli",
        "et"
[...]
